<unk>	0
<s>	0
</s>	0
,	-2.43423
-	-3.58291
либо	-3.88238
▁в	-3.96449
▁не	-3.98016
е	-4.12062
▁	-4.16332
▁о	-4.17686
▁и	-4.3899
▁что	-4.5719
▁с	-4.73773
▁на	-4.8169
й	-4.84488
▁к	-4.93424
▁по	-4.99639
и	-5.0629
м	-5.10555
▁кого	-5.13542
▁(	-5.14083
▁очень	-5.17835
ть	-5.32238
я	-5.32757
▁или	-5.40247
х	-5.54588
▁кто	-5.58923
у	-5.62173
▁от	-5.62289
а	-5.64106
ю	-5.67555
ая	-5.69989
▁как	-5.73637
▁за	-5.74027
▁человек	-5.78158
нибудь	-5.78386
го	-5.82969
▁чем	-5.83129
▁то	-5.86586
▁когда	-5.88378
▁человеке	-5.91486
)	-5.92699
ся	-5.9511
.	-5.96344
▁из	-5.9722
▁при	-6.02196
▁сильно	-6.02399
▁том	-6.03466
о	-6.07186
ой	-6.08089
▁без	-6.08292
▁все	-6.11095
ую	-6.13995
ом	-6.14023
▁быть	-6.16451
то	-6.1666
▁кому	-6.17675
ли	-6.18207
ого	-6.18653
▁чего	-6.20979
▁нужно	-6.23176
▁выражение	-6.25599
▁у	-6.26746
▁до	-6.28376
▁отношени	-6.29316
▁себя	-6.3335
▁об	-6.35659
▁дело	-6.36539
▁жизни	-6.369
ет	-6.37644
▁ничего	-6.3934
▁так	-6.40073
ый	-6.41265
▁кем	-6.42868
▁д	-6.4304
▁который	-6.47074
▁про	-6.47195
▁делать	-6.4836
ых	-6.50198
▁но	-6.50605
▁человека	-6.51807
т	-6.52061
▁ни	-6.52233
ь	-6.52548
▁деле	-6.55665
▁его	-6.59549
▁людей	-6.59708
▁много	-6.60034
▁дела	-6.60714
ы	-6.62701
ить	-6.62773
▁сделать	-6.63007
▁ес	-6.67794
▁а	-6.68098
▁время	-6.6839
бы	-6.694
ля	-6.70176
▁дл	-6.7131
▁чём	-6.74447
▁может	-6.75342
ться	-6.75351
▁свои	-6.78425
▁быстро	-6.82266
▁только	-6.83471
▁каком	-6.84151
ми	-6.8448
▁это	-6.85204
их	-6.86149
▁говорить	-6.88603
:	-6.89346
▁хорошо	-6.89378
▁во	-6.90101
▁того	-6.90288
сти	-6.92381
▁человеку	-6.9341
▁же	-6.93768
▁под	-6.96798
▁со	-6.9692
ым	-6.99365
▁восклицание	-7.00063
▁других	-7.01291
▁нет	-7.01663
ется	-7.02301
▁всё	-7.04224
▁ситуации	-7.05881
л	-7.07111
▁будет	-7.08353
▁жизнь	-7.09263
▁состоянии	-7.12071
му	-7.12353
в	-7.12838
▁сам	-7.14098
ов	-7.1556
▁какой	-7.17082
▁совершенно	-7.18747
▁своим	-7.18907
▁тем	-7.1904
▁какое	-7.1913
▁раз	-7.2008
ем	-7.20284
можно	-7.20864
▁он	-7.21401
▁своей	-7.21961
▁есть	-7.22063
▁лучше	-7.22084
вести	-7.22789
▁себе	-7.22819
ют	-7.23132
▁больше	-7.23291
ий	-7.25866
▁которо	-7.27726
▁чему	-7.28529
▁друг	-7.2934
▁крайне	-7.29933
▁которые	-7.32045
▁полностью	-7.33263
▁люди	-7.3332
ать	-7.34135
ые	-7.34687
▁свое	-7.35466
▁сильного	-7.35768
ей	-7.36749
▁призыв	-7.36783
▁всех	-7.37489
но	-7.37708
▁всегда	-7.398
▁место	-7.41677
▁т	-7.42652
▁положение	-7.42685
▁ком	-7.44158
▁бы	-7.45058
▁времени	-7.45091
ое	-7.45119
▁име	-7.452
▁тому	-7.46663
▁обычно	-7.48287
—	-7.4853
▁говорится	-7.48722
▁жить	-7.48822
ее	-7.49756
▁какого	-7.49933
▁постоянно	-7.51811
▁было	-7.52468
?	-7.54192
▁после	-7.55808
ных	-7.56476
▁плохо	-7.56802
▁мало	-7.57759
▁людям	-7.58153
▁совсем	-7.58154
▁говорят	-7.58183
▁сказать	-7.58331
▁употребляется	-7.58346
▁раздражения	-7.6021
▁абсолютно	-7.60265
▁вы	-7.61287
ясь	-7.62184
▁где	-7.62329
ный	-7.64046
▁стоит	-7.64459
▁п	-7.64924
▁легко	-7.65193
▁трудно	-7.65658
▁сил	-7.6624
ому	-7.66844
▁тех	-7.67649
▁тот	-7.67993
▁перед	-7.68099
▁получить	-7.69112
▁всем	-7.69748
▁недовольство	-7.70514
даже	-7.70817
▁раздражение	-7.71118
▁знать	-7.71186
▁куда	-7.71242
▁часто	-7.71264
▁м	-7.71752
▁люб	-7.72202
▁заниматься	-7.73448
▁имеет	-7.75411
▁каким	-7.75479
▁неожиданно	-7.7561
▁долго	-7.76329
▁которого	-7.76414
▁над	-7.77856
▁один	-7.77909
▁следует	-7.78228
▁выражающ	-7.78268
ения	-7.79454
ен	-7.80115
▁действовать	-7.80966
не	-7.81736
"	-7.82715
ости	-7.83591
▁стать	-7.83825
▁чувство	-7.84692
н	-7.85164
сть	-7.85355
▁недовольства	-7.85939
▁ситуацию	-7.85975
иться	-7.86004
▁убить	-7.86031
▁решение	-7.86062
▁фраза	-7.86123
ным	-7.86385
▁ему	-7.86981
▁сво	-7.87218
ыми	-7.87671
за	-7.8792
ном	-7.87984
▁еще	-7.88639
▁внимание	-7.8864
▁возможности	-7.88656
▁против	-7.88729
ами	-7.88821
▁другого	-7.88994
ставить	-7.89477
тся	-7.89599
▁котор	-7.89711
▁невозможно	-7.9015
▁"	-7.90976
▁гнева	-7.91096
▁слишком	-7.91395
▁заставить	-7.91713
▁боле	-7.9174
▁этом	-7.92431
▁каких	-7.92738
▁полно	-7.93783
▁деньги	-7.94253
▁внимания	-7.94257
▁гнев	-7.94735
лся	-7.94767
▁вопрос	-7.95268
▁делом	-7.96699
▁отношения	-7.96851
▁людях	-7.97196
п	-7.97201
▁каждый	-7.97251
▁стороны	-7.97263
▁состояние	-7.97408
▁ты	-7.97477
▁которая	-7.97625
▁большой	-7.97641
▁своего	-7.97724
▁всего	-7.98765
ная	-7.98944
ной	-7.9898
ежду	-7.99432
▁слова	-7.99535
/	-8.00224
▁действий	-8.00258
▁силы	-8.00439
▁–	-8.00485
им	-8.01951
водить	-8.0223
на	-8.03291
▁работу	-8.03398
▁добиться	-8.03433
▁найти	-8.03562
▁женщине	-8.03722
▁важно	-8.03848
▁самое	-8.04275
▁дать	-8.04987
▁случае	-8.05233
▁никак	-8.05808
▁сразу	-8.06575
▁умереть	-8.06589
или	-8.07757
▁пере	-8.08425
▁одно	-8.08596
▁их	-8.0967
▁людьми	-8.09908
▁положении	-8.09937
▁обманывать	-8.09945
▁неприятности	-8.09958
▁усилий	-8.0997
▁применяется	-8.09982
▁обязательно	-8.10024
▁друга	-8.10336
▁какие	-8.10616
ка	-8.10937
ное	-8.11518
ки	-8.12367
воих	-8.12571
▁другим	-8.12805
уже	-8.12819
▁события	-8.13188
▁никогда	-8.13388
▁потерять	-8.13416
▁делает	-8.13794
▁этого	-8.14279
▁самом	-8.14735
ам	-8.14795
аться	-8.15768
▁г	-8.16553
▁переста	-8.16841
▁проблемы	-8.16963
▁конца	-8.17022
▁просто	-8.19608
▁действия	-8.19751
ие	-8.21904
▁могу	-8.22668
ающее	-8.22708
▁сред	-8.23719
▁поводу	-8.24546
▁двух	-8.24553
▁поступки	-8.24604
▁неизвестно	-8.24628
▁начать	-8.24633
▁также	-8.24656
▁собой	-8.24682
д	-8.24739
▁цели	-8.24748
▁одного	-8.2493
▁решения	-8.24956
▁ко	-8.25205
▁прийти	-8.25784
▁большим	-8.26146
как	-8.26237
▁выраж	-8.27214
лось	-8.27348
ются	-8.27653
▁момент	-8.27931
▁большом	-8.28134
▁должен	-8.28485
▁желания	-8.28507
с	-8.28516
▁целью	-8.28517
▁злобы	-8.28525
▁трудности	-8.2866
▁понять	-8.28729
▁равно	-8.29139
▁душевн	-8.2935
i	-8.29433
▁пожелани	-8.30364
▁пред	-8.30575
▁любом	-8.30623
▁всяк	-8.30663
▁результат	-8.30885
▁отношение	-8.31254
▁выход	-8.3155
▁ли	-8.31796
▁полном	-8.31945
ные	-8.32441
▁нельзя	-8.32644
▁помощь	-8.32724
▁положения	-8.32734
▁давно	-8.32781
▁стало	-8.32887
▁успеха	-8.32919
▁работать	-8.33132
▁результата	-8.33416
▁котором	-8.33498
▁делах	-8.34318
▁ответ	-8.34334
▁такой	-8.34416
▁вид	-8.35468
▁пыта	-8.35554
▁н	-8.36367
▁мысли	-8.36502
является	-8.36899
▁девиз	-8.36993
▁далеко	-8.36996
▁своё	-8.37009
▁никто	-8.37057
▁достижения	-8.37094
▁совершать	-8.3713
▁глупый	-8.37198
▁вместе	-8.37275
▁тебе	-8.37286
▁работе	-8.37336
▁труда	-8.37355
▁тяжело	-8.37488
▁ничем	-8.38102
▁правильно	-8.38362
ного	-8.38577
ния	-8.38602
казаться	-8.38897
▁него	-8.4
ние	-8.40213
▁жизненны	-8.40742
▁изменить	-8.41383
к	-8.41514
▁целиком	-8.41563
ями	-8.41628
▁возможность	-8.41664
▁прямо	-8.41724
▁обмануть	-8.41953
▁правило	-8.42106
▁пользу	-8.42146
▁другу	-8.42218
ение	-8.42541
▁необходимо	-8.4363
вать	-8.44195
▁был	-8.45104
▁уж	-8.45208
▁работа	-8.45333
▁ясно	-8.45512
▁удивление	-8.46299
▁хочешь	-8.463
▁поступок	-8.46312
▁злобу	-8.46333
▁работы	-8.46335
▁волнения	-8.46345
▁женщины	-8.46345
▁точно	-8.46358
▁хорошее	-8.46383
▁смерти	-8.46456
▁рано	-8.4646
▁понимать	-8.4655
▁событий	-8.4659
▁сильном	-8.46739
▁стараться	-8.46782
▁самому	-8.47006
обычно	-8.4754
▁пол	-8.47626
что	-8.4783
ах	-8.483
▁обществе	-8.48364
ва	-8.49037
▁лишить	-8.49477
▁плохом	-8.49526
▁открыто	-8.4961
ость	-8.50105
▁усилия	-8.50236
▁тогда	-8.51301
▁громко	-8.51304
▁хуже	-8.514
▁необходимости	-8.51405
▁сторону	-8.51561
▁другие	-8.51577
▁смотреть	-8.51598
▁лет	-8.51736
▁бес	-8.51777
▁отношениях	-8.52013
▁делу	-8.5213
▁ее	-8.52134
▁опыт	-8.52169
▁этим	-8.5244
▁надо	-8.53061
ят	-8.53245
вою	-8.53253
▁смысл	-8.53988
▁излишне	-8.5454
▁любо	-8.54579
▁чьи	-8.55422
▁труд	-8.55536
▁1	-8.56212
шь	-8.56482
▁россии	-8.56563
▁попасть	-8.56587
▁противника	-8.56599
▁душе	-8.5665
▁молчать	-8.56711
ни	-8.56715
▁думать	-8.56722
▁образом	-8.56773
▁дети	-8.56793
▁страха	-8.56818
▁испытывать	-8.5686
▁виду	-8.57034
▁другому	-8.57039
▁желание	-8.57064
▁обращени	-8.57321
▁свой	-8.57325
▁количестве	-8.57427
▁образ	-8.5767
ия	-8.57851
▁19	-8.58048
▁важное	-8.58482
ешь	-8.59204
смотря	-8.5948
ла	-8.59488
▁причин	-8.59587
▁какую	-8.59746
▁должно	-8.60291
▁плохое	-8.60564
ку	-8.60985
▁обращать	-8.6105
▁бог	-8.61338
▁говорит	-8.61785
▁чувства	-8.61864
совершить	-8.62008
же	-8.62051
▁денег	-8.62118
▁ошибки	-8.62123
▁понятно	-8.62137
▁мужчине	-8.62234
▁наказать	-8.62288
▁иногда	-8.62343
▁событие	-8.62459
▁тщательно	-8.62707
▁месте	-8.62742
▁силу	-8.6302
ится	-8.63156
▁откровенно	-8.63202
▁закон	-8.63489
▁решительно	-8.65278
ке	-8.67249
▁прошло	-8.67256
▁удивления	-8.68
▁правду	-8.68023
▁отчаяния	-8.68074
▁спать	-8.68086
▁мнение	-8.68107
▁досады	-8.68112
▁заблуждение	-8.6814
▁окружающих	-8.6815
▁бою	-8.6822
▁меньше	-8.68228
▁опасности	-8.68241
▁окончательно	-8.68537
▁никакой	-8.68694
▁одной	-8.69247
▁крепко	-8.69385
0	-8.69527
▁рас	-8.69533
▁б	-8.696
ности	-8.69742
▁своем	-8.69857
▁сторон	-8.70409
▁исчез	-8.70529
▁различны	-8.7066
▁душевно	-8.70868
▁дел	-8.71406
ком	-8.7204
▁человеком	-8.72225
▁вред	-8.72761
▁приводит	-8.73001
▁высоко	-8.73498
▁ситуация	-8.73951
▁хочет	-8.74061
▁изумление	-8.74251
▁бездельничать	-8.7429
▁идти	-8.74314
▁поведения	-8.7432
▁поведении	-8.74353
▁главное	-8.74394
▁находиться	-8.74446
▁места	-8.74539
▁полн	-8.74549
▁начала	-8.74551
▁выразить	-8.74555
▁дома	-8.74668
ит	-8.7488
▁мир	-8.74971
▁пока	-8.75057
ок	-8.75199
р	-8.75547
▁древне	-8.76676
▁досад	-8.7668
йся	-8.7743
▁слово	-8.78231
▁строго	-8.78369
u	-8.78451
▁неопределенно	-8.78502
▁бесполезно	-8.78577
▁женщина	-8.78892
принять	-8.79383
тебя	-8.7982
▁радость	-8.80614
▁речь	-8.80617
▁тихо	-8.8063
▁страдания	-8.80666
▁выражения	-8.80821
▁считать	-8.80885
▁бесследно	-8.80917
▁негодование	-8.80918
▁ответственность	-8.8092
▁значения	-8.80925
чьей	-8.8095
▁бояться	-8.80958
▁выпить	-8.80968
▁будущем	-8.80982
▁беды	-8.80982
просить	-8.8101
▁чьё	-8.81021
▁намеренно	-8.81025
▁кажется	-8.81027
▁власти	-8.81034
▁невозможности	-8.81147
▁сильный	-8.81176
▁пользоваться	-8.81177
ную	-8.81207
▁волнение	-8.81339
▁забот	-8.81355
▁проявля	-8.81426
▁идет	-8.81481
▁больши	-8.81498
▁день	-8.81532
▁известно	-8.81644
▁другом	-8.81674
ять	-8.82137
▁самого	-8.82264
ны	-8.82394
▁нечего	-8.82694
▁трудной	-8.82914
▁имеющем	-8.8333
▁грубо	-8.83689
пытаться	-8.83719
▁боль	-8.84006
▁мешать	-8.84011
▁похожи	-8.8435
чи	-8.84577
a	-8.84644
▁спокойно	-8.84813
▁добро	-8.84954
▁становит	-8.85048
раздо	-8.85281
(	-8.85315
ющем	-8.85394
▁го	-8.86036
▁которым	-8.86166
e	-8.86253
1	-8.86677
▁внешне	-8.8686
▁р	-8.87107
▁резко	-8.87614
нии	-8.8771
▁одновременно	-8.8806
▁сейчас	-8.8806
▁говорящего	-8.8806
▁изумления	-8.88061
▁пустословить	-8.88062
▁смеяться	-8.88063
▁возмущения	-8.88064
▁вещей	-8.88066
▁значение	-8.88067
▁согласия	-8.88068
▁сказанного	-8.88091
▁отношении	-8.88092
▁победить	-8.88095
▁выгоды	-8.88097
▁уничтожить	-8.88102
▁хороший	-8.88133
▁угодно	-8.88134
▁использовать	-8.88134
▁потом	-8.88164
▁успокоиться	-8.88165
▁остаться	-8.88175
▁будут	-8.88176
▁хорошие	-8.8819
▁уйти	-8.88193
▁вещи	-8.88197
▁помощи	-8.88225
▁деятельности	-8.88231
▁отвечать	-8.88256
▁хорошего	-8.88304
▁избить	-8.88341
▁искать	-8.88363
▁узнать	-8.88366
▁зачем	-8.88417
▁способен	-8.88479
▁всяки	-8.88592
▁плохого	-8.89174
▁тяжелой	-8.89188
▁переживания	-8.89191
вшись	-8.89198
всю	-8.89338
▁немного	-8.89457
▁вмешива	-8.89535
держаться	-8.8979
▁обстоятельства	-8.8986
▁да	-8.90317
выйти	-8.90419
▁внезапно	-8.90771
▁результате	-8.90809
▁шум	-8.9091
давать	-8.91306
принимать	-8.91358
▁характер	-8.91407
▁времен	-8.91617
▁прилага	-8.92047
▁обстоятельств	-8.92137
▁лиш	-8.92651
▁знания	-8.92798
▁буд	-8.93034
▁принято	-8.93147
▁успех	-8.93459
▁начина	-8.93621
▁верн	-8.93786
▁страх	-8.93966
ской	-8.94653
▁особо	-8.94664
▁пуст	-8.95003
▁голод	-8.95134
▁вот	-8.95331
▁близко	-8.95339
▁поведение	-8.95383
▁качествам	-8.95526
▁защит	-8.95668
▁взять	-8.95744
▁непосредственно	-8.95752
▁нередко	-8.95752
▁раньше	-8.95752
▁достичь	-8.95752
▁лозунг	-8.95752
▁негодования	-8.95753
▁вещь	-8.95754
▁промолчать	-8.95759
▁мысль	-8.95764
▁любви	-8.95766
▁бывает	-8.95778
▁правда	-8.95794
▁поздно	-8.95796
▁готовым	-8.95858
▁каждому	-8.95873
▁будешь	-8.95879
▁погибнуть	-8.95883
▁сделано	-8.9591
▁приветствие	-8.95953
▁беда	-8.95963
▁пути	-8.95968
▁вину	-8.95971
▁условиях	-8.95978
▁город	-8.96146
по	-8.96152
▁русск	-8.96156
▁встрече	-8.9616
▁позвол	-8.96173
▁умный	-8.96198
▁суть	-8.96226
▁настроение	-8.96229
▁виде	-8.96264
▁года	-8.96499
▁разны	-8.96659
ст	-8.96693
▁2	-8.96736
▁всяко	-8.9685
.)	-8.96874
▁плохие	-8.96913
▁такое	-8.97121
▁другой	-8.97235
▁плакать	-8.97323
▁подходит	-8.97444
▁хлопот	-8.97495
▁названи	-8.98018
▁держать	-8.98098
▁глуп	-8.9813
▁плохой	-8.98282
▁хорошем	-8.9887
▁уме	-8.98974
▁способ	-8.9903
▁оста	-8.99135
▁независимо	-8.99309
▁большо	-8.99392
▁само	-8.99421
▁чье	-8.99555
ло	-8.99617
▁спор	-8.99979
менно	-8.9998
ющий	-9.00372
▁перво	-9.00812
▁им	-9.00902
▁общественно	-9.00947
яться	-9.01387
ность	-9.01491
стью	-9.01628
▁первы	-9.01661
▁сделал	-9.01706
▁исправить	-9.01805
▁отказыва	-9.01863
▁пр	-9.01974
▁самым	-9.02121
▁дурак	-9.02336
нести	-9.02452
▁самы	-9.02564
▁ним	-9.0264
▁приобре	-9.02706
▁приходит	-9.02798
ра	-9.02806
▁давать	-9.03063
▁последствия	-9.03117
▁закона	-9.03241
ает	-9.03656
▁качества	-9.03687
ают	-9.03956
o	-9.0408
▁впечатление	-9.04086
▁заранее	-9.04086
▁порядок	-9.04087
▁безразлично	-9.0409
▁исчезнуть	-9.041
▁путем	-9.04101
▁воевать	-9.04102
▁её	-9.04116
▁клятвенно	-9.04151
▁глупом	-9.04179
▁хотят	-9.04185
▁путь	-9.04213
▁пословицы	-9.0422
▁разговоры	-9.04221
▁степени	-9.04271
▁компании	-9.04311
▁решить	-9.04312
▁испытать	-9.04322
▁чаще	-9.04429
▁видно	-9.04468
▁готов	-9.04478
▁искренне	-9.04488
▁свете	-9.04525
▁наказание	-9.0456
▁че	-9.04578
▁судить	-9.04602
▁большого	-9.04611
▁сведения	-9.04634
▁словами	-9.04666
▁недоумение	-9.04716
▁течение	-9.04782
▁внимательно	-9.04783
▁учиться	-9.04866
▁те	-9.04889
▁э	-9.04904
▁стран	-9.05153
▁неприятное	-9.05234
▁широко	-9.05554
▁латинско	-9.05666
▁другими	-9.05845
г	-9.05917
▁горе	-9.05959
▁наибол	-9.06493
▁особенно	-9.06553
от	-9.06767
ти	-9.06787
▁удовольствие	-9.06937
▁изо	-9.07487
▁выражает	-9.07649
▁часть	-9.0801
▁каждо	-9.08174
▁год	-9.08334
чем	-9.08505
ющемся	-9.08622
ило	-9.08831
лись	-9.09127
▁средств	-9.09128
▁намек	-9.09386
▁случайно	-9.09437
▁глубоко	-9.09464
ии	-9.09886
ле	-9.10162
▁испытыва	-9.10494
▁предмет	-9.10516
▁охват	-9.10865
▁разговор	-9.11073
▁счита	-9.1124
ается	-9.11308
ющее	-9.11613
сь	-9.12102
▁пре	-9.12117
та	-9.1222
▁ход	-9.12291
▁дом	-9.1232
▁страшно	-9.12331
▁хорошим	-9.12478
нуть	-9.12622
▁пословиц	-9.12646
з	-9.12668
▁лицо	-9.12841
▁принцип	-9.1294
▁требует	-9.13128
▁избавиться	-9.13177
▁библии	-9.13177
▁возмущение	-9.13181
▁ошибку	-9.13182
▁касается	-9.13187
▁относиться	-9.1319
▁стремиться	-9.1319
▁жалости	-9.13192
▁сути	-9.13198
▁знаний	-9.13198
▁торопиться	-9.13216
▁молодости	-9.13223
▁действует	-9.13224
▁врага	-9.13227
▁вся	-9.13243
▁лишнее	-9.13246
▁настроении	-9.13251
▁знает	-9.13259
▁желает	-9.13265
▁общества	-9.13273
▁злости	-9.13277
▁точки	-9.1328
▁небрежно	-9.13306
▁никому	-9.13318
▁вовремя	-9.13334
▁ради	-9.1337
▁проблему	-9.13382
▁показывать	-9.13383
▁зрения	-9.1341
▁чужого	-9.13429
▁богатство	-9.13469
▁потвержд	-9.13483
▁нежелательное	-9.1353
▁пословица	-9.13563
▁счастливым	-9.1357
▁чувстве	-9.13594
▁сложной	-9.13605
▁исход	-9.13612
▁высокого	-9.13627
▁плохи	-9.13791
▁смерть	-9.13813
▁замеча	-9.13889
▁хочется	-9.14035
▁верить	-9.14132
▁любить	-9.14311
▁мужчина	-9.14328
▁терпеть	-9.14443
▁начале	-9.14558
▁проявить	-9.14609
▁своему	-9.1462
ях	-9.14684
▁одном	-9.14737
▁другую	-9.15012
▁нас	-9.15204
▁мы	-9.15241
▁жизнью	-9.15433
▁бессмысленно	-9.15556
▁форме	-9.15712
▁сильным	-9.15816
▁были	-9.15821
▁собственн	-9.16405
▁неприятн	-9.16515
▁воз	-9.16605
рез	-9.16613
▁жизненн	-9.1676
ющая	-9.16882
▁чуж	-9.1691
чего	-9.17384
▁должн	-9.17804
▁суд	-9.18077
▁вызва	-9.18229
▁пус	-9.18318
те	-9.18509
▁соверш	-9.18965
▁случая	-9.19248
лась	-9.19468
об	-9.19626
овать	-9.19639
ному	-9.19666
▁происходит	-9.19667
▁событи	-9.19992
его	-9.20117
щее	-9.20457
ступить	-9.205
▁принима	-9.20812
▁след	-9.20818
▁определенн	-9.2099
▁высше	-9.21142
плакать	-9.2129
▁риск	-9.21469
▁неправильно	-9.21547
носить	-9.21909
енных	-9.22074
ил	-9.22168
▁несправедливо	-9.22285
▁сказал	-9.22323
▁средства	-9.22404
полне	-9.2273
▁любовь	-9.22903
▁слов	-9.22917
▁выра	-9.23028
▁разговора	-9.23116
▁беспорядок	-9.23176
▁ещё	-9.23176
▁нисколько	-9.23176
▁хватает	-9.23176
▁символ	-9.23177
▁беспокойства	-9.23177
▁слезы	-9.23177
▁прежде	-9.23178
▁значении	-9.23179
▁мыслях	-9.23185
▁несчастным	-9.23187
▁притворяться	-9.23191
▁заслуживает	-9.23192
▁ерунду	-9.23196
▁покоя	-9.23209
▁осторожным	-9.23211
▁никуда	-9.23225
▁скрывая	-9.23228
▁выводы	-9.23231
▁чрезмерно	-9.23233
▁получится	-9.23254
▁истинности	-9.23261
▁решать	-9.23269
▁предупреждение	-9.23273
▁рассуждать	-9.23274
▁переживать	-9.23277
▁выгоду	-9.2329
▁смешно	-9.23322
▁временем	-9.23326
▁одна	-9.23417
▁выполнять	-9.23433
▁удачи	-9.23435
▁бесполезным	-9.23449
▁неудачу	-9.23456
▁сильнее	-9.23481
▁сильн	-9.2353
▁дорогой	-9.23563
▁большая	-9.23647
▁ситуациях	-9.23694
много	-9.23734
▁способности	-9.23735
▁богу	-9.23749
▁жена	-9.23768
▁врать	-9.23783
▁лица	-9.2388
▁смысла	-9.23925
▁действиях	-9.24067
▁богатым	-9.24162
▁качествами	-9.24223
▁там	-9.24265
▁влияние	-9.24276
ходится	-9.24311
ющие	-9.24317
▁право	-9.24331
говорить	-9.24446
▁видеть	-9.24507
▁случай	-9.24539
ывать	-9.24743
▁запомнить	-9.24764
▁времена	-9.24785
▁участи	-9.24828
▁вздор	-9.24863
▁плохим	-9.24949
▁пос	-9.25414
▁успешно	-9.25498
ющийся	-9.26011
▁худш	-9.26237
ров	-9.26576
▁достаточно	-9.26621
сознательно	-9.26918
действительности	-9.27076
▁меня	-9.27274
▁условия	-9.27335
яя	-9.27567
▁груб	-9.27752
▁чтоб	-9.28335
▁отсутствие	-9.28391
▁чьим	-9.28843
▁исходя	-9.28987
▁отсутстви	-9.29108
▁обо	-9.29569
▁виноват	-9.29688
▁неожиданное	-9.29738
▁кажд	-9.29764
ут	-9.29994
▁мал	-9.30079
кого	-9.30107
кой	-9.30107
енный	-9.30429
▁жестоко	-9.31331
ставлять	-9.31384
▁поспешно	-9.31631
▁многое	-9.31636
▁возможно	-9.31649
▁начало	-9.31702
▁вызыва	-9.31897
▁ка	-9.31919
▁цел	-9.31961
ль	-9.32383
▁активно	-9.3241
▁зло	-9.32423
▁больно	-9.32534
▁показать	-9.32665
верх	-9.32782
▁привлека	-9.32808
вший	-9.33028
▁взгляд	-9.33289
▁личн	-9.33508
▁достоинства	-9.33784
▁поговорк	-9.33784
▁власть	-9.34045
▁групп	-9.34123
▁подчинить	-9.34139
▁стар	-9.34211
▁вообще	-9.34288
▁вследствие	-9.34288
▁изнеможения	-9.34288
▁некстати	-9.34288
▁оплошность	-9.34288
▁счастье	-9.34288
▁счастья	-9.34288
▁ущерб	-9.34288
▁чрезвычайно	-9.34288
▁конечно	-9.34288
▁недостатки	-9.34288
▁рысь	-9.34289
▁легче	-9.3429
▁медленно	-9.34291
▁ошибок	-9.34292
▁опьянения	-9.34293
▁противнику	-9.34297
▁получишь	-9.34302
▁жениться	-9.34302
▁мудрость	-9.34307
▁информацию	-9.34312
▁последствий	-9.34313
▁произошло	-9.34313
▁внешности	-9.34319
▁конец	-9.34321
▁слабом	-9.34327
▁рискнуть	-9.34329
▁срок	-9.34357
▁недоумения	-9.3436
▁одежду	-9.34363
▁напрасно	-9.3437
▁источник	-9.3437
▁сначала	-9.34376
▁преступления	-9.34381
▁повторять	-9.34396
▁навсегда	-9.34406
▁трудиться	-9.34417
▁случилось	-9.34443
▁сказанное	-9.34455
▁действие	-9.34494
▁осторожности	-9.34529
▁чужие	-9.34538
▁рядом	-9.3456
▁незаметно	-9.34582
▁считается	-9.34584
▁должности	-9.34592
▁властью	-9.34593
▁поступке	-9.34611
жающее	-9.34635
▁чувствовать	-9.34695
▁руки	-9.34766
▁надежд	-9.34793
▁обстоятельствах	-9.34814
▁побить	-9.34833
▁трудом	-9.34877
▁коротко	-9.34911
▁пустом	-9.34911
▁века	-9.3494
▁пустой	-9.35008
▁никого	-9.35072
▁продолжа	-9.35116
▁мира	-9.35129
▁s	-9.35152
▁сложное	-9.35203
▁брак	-9.35297
▁ума	-9.3543
▁темы	-9.35551
▁непонятно	-9.35638
при	-9.35729
▁созда	-9.35792
▁ведет	-9.35899
▁таком	-9.36021
▁права	-9.36167
▁разговоре	-9.36262
ными	-9.36273
▁глаза	-9.36329
▁скоро	-9.36335
▁ра	-9.36385
▁теря	-9.36555
▁исполнени	-9.36671
▁призна	-9.36768
▁связан	-9.36775
▁осторожно	-9.36777
▁устраива	-9.36982
▁воспринимать	-9.37118
▁появлени	-9.37144
▁имея	-9.37159
▁цар	-9.37272
ство	-9.37497
▁личны	-9.37532
▁женщинам	-9.37919
еся	-9.38089
▁честно	-9.38122
ко	-9.38301
ваться	-9.38319
▁какими	-9.3843
▁сложн	-9.38859
ились	-9.39015
▁всём	-9.39212
▁прав	-9.3973
▁продолжать	-9.39776
▁4	-9.3999
▁духовно	-9.40105
ающий	-9.40115
▁всеми	-9.40378
она	-9.40919
▁делам	-9.4095
▁молод	-9.41043
▁отвеча	-9.41182
▁оценива	-9.41384
ении	-9.41987
▁неприятно	-9.42142
▁слаб	-9.42161
▁существу	-9.42518
▁трудное	-9.42635
▁важны	-9.4273
▁ряд	-9.42786
ью	-9.43065
3	-9.4324
▁наход	-9.43403
▁вынужден	-9.43544
▁выбор	-9.43582
дают	-9.4383
▁основа	-9.43951
▁вер	-9.44025
▁бога	-9.4413
▁процесс	-9.44292
▁возраст	-9.44435
▁проявлени	-9.44527
▁пор	-9.44534
▁явно	-9.44653
▁дает	-9.44939
ших	-9.45006
▁товар	-9.45225
▁отказ	-9.45226
▁лучш	-9.45385
▁определя	-9.45849
▁час	-9.46032
чески	-9.46093
ек	-9.4624
▁значит	-9.46305
▁уважение	-9.46322
▁перв	-9.46476
▁хозяин	-9.46517
▁мастер	-9.46523
▁мечта	-9.46526
▁чувств	-9.46528
▁ночь	-9.46535
ющим	-9.4654
▁испуга	-9.46639
▁деятельность	-9.46661
▁получает	-9.46688
▁применяет	-9.46737
▁вокруг	-9.46788
▁наоборот	-9.46788
▁чистосердечно	-9.46788
▁соответствует	-9.46788
▁произойти	-9.46788
▁несчастья	-9.46788
▁рассудок	-9.46791
▁волнует	-9.46792
▁горьк	-9.46792
▁говорящий	-9.46795
▁относится	-9.46795
▁спиртное	-9.46799
▁неприятностей	-9.468
▁отругать	-9.46801
▁притеснять	-9.46808
▁случиться	-9.4681
▁существовать	-9.46811
▁войны	-9.46812
▁пользы	-9.46817
▁суматоха	-9.46818
▁помочь	-9.46819
▁болтать	-9.4682
▁голову	-9.46824
▁контроль	-9.46824
▁выполнить	-9.46826
▁сохранять	-9.46848
▁интересах	-9.46851
▁способностей	-9.46856
▁старости	-9.46856
▁обнаружить	-9.4686
▁свободу	-9.46866
▁девушка	-9.46871
▁прекратить	-9.46877
▁существования	-9.46883
▁подумать	-9.46883
▁болезни	-9.46887
▁пережить	-9.46887
▁дальнейшем	-9.46887
▁родственник	-9.46892
▁роли	-9.46893
▁чепуху	-9.46895
▁радости	-9.46901
▁интересы	-9.46901
▁душу	-9.46907
▁очевидно	-9.46911
▁хороших	-9.46912
▁рассказывать	-9.46915
▁судьбу	-9.46915
▁испытания	-9.46922
▁повторении	-9.46926
▁страны	-9.46933
▁глупости	-9.46941
▁судьба	-9.46942
▁состояния	-9.46942
▁предпринимать	-9.46948
▁преувеличивать	-9.46949
▁многих	-9.4696
▁опытный	-9.46962
▁понимая	-9.46968
▁нагло	-9.4697
▁сомнения	-9.46982
▁формул	-9.46995
▁испугаться	-9.47005
щий	-9.47011
▁работой	-9.47015
▁пришел	-9.47027
▁новых	-9.47046
▁тут	-9.47051
▁поддерживать	-9.47054
▁почему	-9.47055
▁слушать	-9.47057
▁будущее	-9.4706
▁получается	-9.47106
▁почувствовать	-9.47108
▁причины	-9.47124
▁семьи	-9.47147
▁способом	-9.47171
▁неудачи	-9.47171
▁голодать	-9.47192
▁тяжел	-9.47227
▁мне	-9.47233
▁приходится	-9.47235
▁благодар	-9.47253
▁страдать	-9.47293
▁отсутствия	-9.47301
▁заставлять	-9.47312
▁редко	-9.47452
▁вопросы	-9.47462
▁затруднительное	-9.47464
▁поступить	-9.47502
▁полная	-9.47534
▁голос	-9.47548
▁мириться	-9.47599
▁неприятном	-9.47613
▁действиями	-9.47659
ков	-9.47672
▁существование	-9.47739
▁злость	-9.47847
▁беспощадно	-9.47855
▁форма	-9.47882
▁внутренне	-9.47947
▁конце	-9.48015
▁упорно	-9.48106
ему	-9.48207
▁тяжёл	-9.4826
▁трудн	-9.48276
▁непонятное	-9.48353
▁выполня	-9.48369
▁предела	-9.48567
сли	-9.48585
▁замуж	-9.48588
▁множество	-9.48593
ведомо	-9.48676
▁семье	-9.48874
▁нарушить	-9.48891
▁вопроса	-9.48908
▁движение	-9.48912
▁ме	-9.49169
▁делами	-9.49412
▁бесполезное	-9.49607
▁побыва	-9.49613
▁неожиданном	-9.49626
ься	-9.49715
▁открыт	-9.49775
▁ними	-9.49844
▁заверени	-9.49888
▁важным	-9.49997
ин	-9.5
▁сон	-9.50054
▁иронически	-9.5008
▁трудном	-9.50157
▁части	-9.50472
▁крайн	-9.506
▁мой	-9.50815
аясь	-9.50952
ёт	-9.51034
▁печали	-9.51249
▁обще	-9.5134
▁зависи	-9.51391
чных	-9.51444
▁добры	-9.51707
▁русско	-9.51856
▁никако	-9.52128
▁нежелательны	-9.52302
▁отдать	-9.52531
до	-9.52538
▁нужны	-9.52574
▁человеческ	-9.52594
ённо	-9.52609
▁кон	-9.52644
▁напрасны	-9.52668
▁дух	-9.52731
ствовать	-9.52933
▁дву	-9.52971
▁удачно	-9.52994
▁красив	-9.5301
▁призывающ	-9.53218
ложить	-9.53308
ри	-9.53366
▁истинно	-9.53425
▁пример	-9.53544
▁физически	-9.53548
▁вопросе	-9.53887
пускать	-9.53905
▁долг	-9.54043
йти	-9.54069
данный	-9.54225
ести	-9.54498
▁физическ	-9.5451
▁причина	-9.54761
вая	-9.54776
▁помог	-9.5543
▁шутливо	-9.55554
▁потерял	-9.55784
▁получ	-9.5587
хорошему	-9.55872
няя	-9.56033
ник	-9.56047
▁велик	-9.56174
▁тесно	-9.56407
▁та	-9.56561
▁детск	-9.56629
▁окружающи	-9.56639
▁делай	-9.56721
▁жив	-9.5675
енной	-9.56931
▁результатам	-9.57011
шению	-9.57197
▁выражать	-9.57292
2	-9.57308
правиться	-9.57344
▁бедно	-9.5746
ировать	-9.57529
лат	-9.57731
э	-9.57937
енного	-9.58064
▁муж	-9.58218
▁лично	-9.58386
▁отношений	-9.58448
чём	-9.5853
ятся	-9.58626
▁создава	-9.58753
▁нежелани	-9.58778
▁ш	-9.58809
▁любим	-9.58832
ратить	-9.58909
▁язык	-9.58948
ат	-9.59447
▁происхождени	-9.595
▁заставля	-9.59566
▁брать	-9.59657
вот	-9.59782
ничать	-9.59868
▁шаг	-9.60013
▁проблем	-9.60132
ём	-9.60178
ился	-9.6024
▁эт	-9.60287
мя	-9.60462
▁принес	-9.60556
▁безвыходно	-9.60618
может	-9.60621
▁период	-9.60623
▁народ	-9.6063
▁либо	-9.60817
▁наступит	-9.60885
▁сами	-9.60886
▁скрыт	-9.60905
▁пьян	-9.61011
▁ближайше	-9.61073
▁восторг	-9.61073
▁впустую	-9.61073
▁заслугам	-9.61073
▁памяти	-9.61073
▁сведений	-9.61073
▁сколько	-9.61073
▁ссср	-9.61073
▁угрозы	-9.61073
▁хватит	-9.61073
▁армии	-9.61073
▁друзей	-9.61073
▁орден	-9.61074
▁унижаться	-9.61077
▁всеобщи	-9.61078
▁петухов	-9.6108
▁проступок	-9.61081
▁незначительном	-9.61081
▁пропал	-9.61082
▁высокомерно	-9.61087
▁ничуть	-9.61088
▁пренебрежения	-9.61088
▁сердиться	-9.61092
▁благодарности	-9.61097
▁проходит	-9.61098
▁пропасть	-9.61102
▁нравится	-9.61103
▁желаемого	-9.61103
▁20	-9.61105
▁нужен	-9.61111
▁информация	-9.6112
▁начинает	-9.61126
▁усталости	-9.61129
▁встречается	-9.61136
▁спешить	-9.61137
▁положению	-9.61137
▁оборот	-9.61138
▁интересов	-9.61139
▁истории	-9.6114
▁означающее	-9.61141
▁несколько	-9.61147
▁глупость	-9.61148
▁быстрее	-9.61152
▁беден	-9.61166
▁основательно	-9.61169
▁неприятность	-9.61171
▁думая	-9.61171
▁взглядов	-9.61173
▁правдиво	-9.61173
ках	-9.61178
▁бедности	-9.61187
▁соображать	-9.61189
▁проступки	-9.61192
▁близких	-9.61193
▁меры	-9.61195
▁ранее	-9.61199
▁настоящий	-9.61202
▁утрати	-9.61205
▁боро	-9.61213
▁простых	-9.61215
▁минут	-9.61219
▁родной	-9.61232
▁разг	-9.6124
▁основания	-9.61241
▁умнее	-9.61244
▁обстановке	-9.61247
▁целей	-9.6126
▁количество	-9.61271
▁счастливой	-9.61281
▁собеседника	-9.61288
▁хотелось	-9.61296
▁стыда	-9.61303
▁поступках	-9.6131
▁вызывающе	-9.61318
▁сильные	-9.61324
▁упасть	-9.61327
▁дальше	-9.61332
▁готовности	-9.61341
▁позиции	-9.61343
▁годится	-9.61345
▁способно	-9.61359
▁обдумать	-9.61361
▁двигаться	-9.61364
▁беду	-9.6141
▁причине	-9.61417
▁лучший	-9.61418
▁девушке	-9.61461
▁занимать	-9.61498
▁первая	-9.61515
▁возраста	-9.6154
▁вины	-9.61544
▁взяться	-9.61552
▁нежелательном	-9.61585
▁идёт	-9.6159
▁эта	-9.61598
▁проблема	-9.61602
▁дней	-9.6164
▁обязанност	-9.6164
▁участия	-9.61648
ну	-9.6168
▁спора	-9.61686
▁коллективе	-9.617
▁рода	-9.6172
преимущественно	-9.61736
▁новый	-9.61737
▁ненужное	-9.61753
▁дорогая	-9.61791
▁зная	-9.61816
▁разумно	-9.61819
▁потому	-9.61848
▁внешним	-9.61874
▁важн	-9.61885
▁моя	-9.6198
▁одному	-9.62011
▁поведением	-9.6204
▁глав	-9.62052
▁воспользова	-9.62063
▁привычк	-9.62082
да	-9.62089
▁задачи	-9.62196
▁красиво	-9.62366
нять	-9.62375
▁игр	-9.62451
ливо	-9.62604
▁важный	-9.62616
▁важного	-9.62732
▁выборе	-9.62865
▁возрасте	-9.62941
де	-9.6297
▁одет	-9.63093
▁будь	-9.6314
▁необычном	-9.63186
▁секрет	-9.63192
▁выбора	-9.63264
▁хо	-9.63269
▁ходить	-9.63376
▁боевы	-9.63574
▁определенны	-9.63768
ер	-9.63926
▁сравн	-9.64029
▁ценить	-9.64114
▁доме	-9.64271
▁нужд	-9.6436
еле	-9.64503
▁настояще	-9.64579
нию	-9.64642
▁никаки	-9.64663
▁сторона	-9.64794
думывать	-9.64799
станет	-9.64884
▁неожиданной	-9.65012
ив	-9.65725
▁мер	-9.65762
▁указани	-9.65783
терпеть	-9.65838
ней	-9.65899
▁нрав	-9.65902
▁всему	-9.65968
▁таланта	-9.66087
ма	-9.66149
▁видит	-9.66218
ор	-9.66219
▁старинно	-9.66345
▁буду	-9.66489
▁гости	-9.6659
▁счастливы	-9.66667
▁значительно	-9.66766
ции	-9.66871
▁называ	-9.67047
верить	-9.67303
▁избежать	-9.67364
▁серьезны	-9.67868
▁понимает	-9.67964
во	-9.68024
▁крест	-9.68169
вшем	-9.68274
▁учитыва	-9.68533
▁занима	-9.6856
▁попал	-9.68814
▁приводя	-9.68846
▁находя	-9.6891
▁проявления	-9.69071
стать	-9.69071
▁обраща	-9.69192
щемся	-9.69382
▁средне	-9.69431
▁приходить	-9.69585
бегать	-9.6963
▁тяжелы	-9.69836
▁достиг	-9.69837
▁умер	-9.69932
▁общ	-9.6996
ту	-9.7005
▁действительно	-9.70056
▁повод	-9.7036
▁главн	-9.70529
▁старинн	-9.70595
▁русски	-9.70899
▁облада	-9.71031
б	-9.71358
▁делая	-9.71466
▁них	-9.71499
▁недо	-9.72023
ающая	-9.72089
▁обеща	-9.72097
▁талант	-9.72109
ишь	-9.72174
ими	-9.72264
▁благополучно	-9.72419
влечь	-9.72465
▁бой	-9.72549
ению	-9.7259
▁пар	-9.72613
ешься	-9.727
▁напомина	-9.73282
▁качестве	-9.73314
▁договор	-9.73347
▁начал	-9.73369
▁атак	-9.73381
▁оказа	-9.73405
5	-9.73448
▁сторонник	-9.73493
▁праздн	-9.73529
▁ум	-9.73718
▁ранне	-9.73844
▁женщин	-9.73875
▁одни	-9.7421
▁тайно	-9.74452
ительно	-9.74609
▁порядк	-9.74683
▁народн	-9.74695
▁собственно	-9.74771
▁разобрать	-9.75076
4	-9.75124
иронически	-9.75208
9	-9.75385
▁приятно	-9.75408
ро	-9.75544
▁расп	-9.75581
держать	-9.75582
большие	-9.75737
▁лес	-9.76174
бить	-9.76293
▁запутанно	-9.7649
▁рук	-9.76518
▁ожида	-9.76671
▁обман	-9.76693
▁получа	-9.76934
▁ярк	-9.76935
▁бед	-9.76976
▁жертв	-9.77096
▁высок	-9.77265
▁перен	-9.77307
неодобрительно	-9.77337
▁глупо	-9.77452
▁дорога	-9.77476
▁волновать	-9.77547
▁хотя	-9.77578
▁руководител	-9.77599
ехать	-9.77605
▁беспокоить	-9.77671
▁ругать	-9.77682
▁качественно	-9.77702
▁зла	-9.77722
▁почти	-9.77739
▁деньгами	-9.7774
▁милостыню	-9.7774
▁напряженно	-9.7774
▁посмешище	-9.7774
▁превзойти	-9.7774
▁предостережени	-9.7774
▁ругательство	-9.7774
▁скоплени	-9.7774
▁камень	-9.7774
▁нипочем	-9.7774
▁оберегать	-9.7774
▁безусловно	-9.7774
▁господ	-9.7774
▁иначе	-9.77741
▁здесь	-9.77741
▁нервничать	-9.77741
▁бесцельно	-9.77741
▁родителей	-9.77741
▁выглядит	-9.77742
▁лидер	-9.77742
▁стесняясь	-9.77744
▁довольно	-9.77745
▁поддержку	-9.77746
▁моментально	-9.77749
▁болтовней	-9.7775
▁позже	-9.77751
жаловаться	-9.77752
▁случится	-9.77752
▁окраск	-9.77753
▁согласии	-9.77753
▁опять	-9.77755
▁намерения	-9.77758
▁противником	-9.77759
▁поддержки	-9.77762
▁понемногу	-9.77768
▁советы	-9.77768
▁манер	-9.7777
▁неправду	-9.7777
▁обременять	-9.77772
▁сделанное	-9.77772
▁спиртного	-9.77775
▁думает	-9.77776
▁мужчины	-9.77777
▁ссоры	-9.77779
▁боится	-9.77781
▁небылицы	-9.77781
▁неразбериха	-9.77781
▁зря	-9.77782
▁целях	-9.77782
▁достоинству	-9.77784
▁снова	-9.77785
▁успокоить	-9.77785
▁соответствии	-9.77786
▁предпринять	-9.77787
▁напиться	-9.77788
▁благополучия	-9.77789
▁свободы	-9.7779
▁общаться	-9.77794
▁дурачиться	-9.77795
▁убеждений	-9.77798
▁желаний	-9.778
▁рима	-9.77805
▁ситуаций	-9.77805
▁сталкива	-9.77806
▁погибать	-9.7781
▁даром	-9.7781
▁древн	-9.7781
▁представлять	-9.77813
▁направлении	-9.77819
▁тревоги	-9.7782
▁самоубийство	-9.77821
▁необдуманно	-9.77824
▁надоедать	-9.77825
▁обиды	-9.77831
▁скрыть	-9.77837
▁планы	-9.77845
▁доверия	-9.77854
▁нужды	-9.77857
▁навредить	-9.77858
▁рассчитывать	-9.77868
▁метод	-9.77873
▁вспомнить	-9.77882
▁душой	-9.77884
▁доводы	-9.77886
▁неудачник	-9.77892
▁ударить	-9.77895
▁разговоров	-9.77895
▁предложение	-9.77897
▁закончить	-9.77898
▁поколотить	-9.779
▁л	-9.779
▁раздражать	-9.77902
▁руководитель	-9.77902
▁отлично	-9.77904
▁избытке	-9.77908
▁правилам	-9.77908
▁должность	-9.77917
▁восхищение	-9.77919
▁команда	-9.77921
▁речи	-9.77923
▁равных	-9.7793
▁авторитетом	-9.77932
▁ограничивать	-9.77933
▁наказания	-9.77938
▁еды	-9.77946
▁достижени	-9.77947
▁последствиям	-9.7795
▁откуда	-9.77954
▁сплетничать	-9.77958
▁тобой	-9.77967
▁осознать	-9.77968
▁особых	-9.7797
▁земле	-9.77976
▁взгляды	-9.77979
▁действии	-9.7798
▁света	-9.77989
▁сделаешь	-9.77992
▁ценности	-9.77994
▁разговорами	-9.77997
▁поступает	-9.77999
▁богатый	-9.78011
▁первоначально	-9.7802
▁наказывать	-9.78023
▁вдруг	-9.78028
▁гражданск	-9.78029
▁добиваться	-9.78037
▁ждать	-9.78043
▁решений	-9.78052
▁замолчать	-9.78053
▁потери	-9.7806
▁общество	-9.78065
▁нежелательного	-9.7807
▁одну	-9.78072
▁поступать	-9.78076
▁средствами	-9.78077
▁бережно	-9.78081
▁отца	-9.78091
▁взглядом	-9.78116
▁спорить	-9.78119
▁требуется	-9.78142
▁смелый	-9.78143
▁пьяный	-9.78156
▁чья	-9.78169
▁пир	-9.78169
▁гор	-9.78185
▁реальной	-9.78188
▁попало	-9.78228
▁оказывать	-9.78239
▁удачу	-9.78271
▁связи	-9.78291
▁поступками	-9.78294
▁оружие	-9.78297
▁имеющее	-9.78304
▁поговорка	-9.78305
▁считает	-9.78309
▁пустые	-9.78365
▁реальность	-9.78387
▁радостно	-9.78391
▁первых	-9.78499
▁желании	-9.78501
▁обещать	-9.7851
правляться	-9.78521
▁выгодном	-9.78542
▁измениться	-9.78558
▁волноваться	-9.78573
▁полу	-9.78577
▁добрый	-9.786
▁прост	-9.78639
▁характера	-9.7865
▁первым	-9.78676
▁спокойствие	-9.78701
удалось	-9.78742
▁хотел	-9.78761
ившись	-9.78787
▁прошлы	-9.78807
▁окончани	-9.7894
ца	-9.78967
▁известном	-9.7902
▁опытным	-9.79054
ье	-9.79113
▁опыта	-9.79124
▁результату	-9.79208
▁измучить	-9.79296
вшееся	-9.79302
▁разрешени	-9.79357
▁лишенно	-9.79361
▁дороги	-9.79374
▁опасное	-9.79399
▁опасность	-9.79445
▁действиям	-9.79445
▁преда	-9.79458
▁обвиня	-9.79614
▁была	-9.79651
ел	-9.79691
▁практическ	-9.79697
▁словах	-9.79709
рить	-9.79732
er	-9.79749
▁невнимательно	-9.79877
▁подход	-9.7989
▁важнее	-9.79949
роде	-9.80089
ре	-9.80093
▁тяжелом	-9.80167
▁пора	-9.80318
▁благо	-9.80332
▁одним	-9.80334
пись	-9.80337
▁силой	-9.80344
▁сражени	-9.80378
▁запутать	-9.80387
▁запрещен	-9.80401
▁бессмысленн	-9.80474
▁беспорядочно	-9.80511
йте	-9.80578
▁лишения	-9.80601
▁служит	-9.8064
▁применя	-9.80646
▁расположение	-9.80725
ких	-9.80852
▁сообща	-9.80858
▁настороже	-9.81067
▁состав	-9.81111
▁неот	-9.81144
▁больш	-9.81163
ложиться	-9.81229
▁бесконечн	-9.81256
▁будущи	-9.81286
▁свойств	-9.81291
▁находящ	-9.81352
ев	-9.81665
▁чей	-9.81704
▁осен	-9.81804
▁поиска	-9.81835
ец	-9.81913
фе	-9.81989
▁выража	-9.82121
тически	-9.82135
▁стол	-9.82178
▁прошлое	-9.82212
▁получив	-9.82234
ня	-9.82297
▁долги	-9.82384
▁ничтожном	-9.82498
▁обращения	-9.82565
▁еле	-9.82587
▁мелочи	-9.82589
▁серьезно	-9.82589
из	-9.82726
▁стороне	-9.82842
стараться	-9.82853
▁уход	-9.8289
▁совместно	-9.82911
▁извести	-9.82945
▁бить	-9.82996
юю	-9.83055
▁взя	-9.83079
дут	-9.83318
пустить	-9.83406
▁высказывать	-9.83861
▁тайна	-9.83902
▁стал	-9.84025
▁некрасиво	-9.84086
▁боли	-9.84262
▁помога	-9.84369
ющих	-9.84629
▁длительно	-9.84805
▁жела	-9.84856
▁отно	-9.84955
создать	-9.84966
▁качество	-9.85146
жности	-9.85149
▁сложном	-9.85188
▁оправдани	-9.85344
шься	-9.8558
▁крупн	-9.85665
▁прикидыва	-9.85708
дойти	-9.85724
▁опасно	-9.85857
▁означающ	-9.85986
▁принят	-9.85993
▁временно	-9.86227
▁сном	-9.86384
▁приложи	-9.86415
▁дожде	-9.86434
▁извлека	-9.8679
▁пожило	-9.86851
▁необходим	-9.86893
▁вернуть	-9.86953
▁особ	-9.86983
▁злом	-9.87025
▁велико	-9.87048
▁подобны	-9.87097
▁внешнем	-9.87129
▁перевод	-9.8717
поднять	-9.87319
ше	-9.87339
▁неблаговидны	-9.87421
▁праздно	-9.87477
▁раздраж	-9.87512
▁опасн	-9.87664
▁довольство	-9.87686
▁избега	-9.87837
▁терять	-9.87964
▁заслуживающ	-9.88091
цы	-9.88111
дать	-9.88112
▁которы	-9.88173
ель	-9.88335
▁страстно	-9.88389
▁означа	-9.88425
▁подчинять	-9.88574
▁доброт	-9.88653
▁вс	-9.8887
▁известна	-9.88898
▁удар	-9.8898
енные	-9.89161
вое	-9.89266
▁избежа	-9.89397
▁имеют	-9.89409
▁сдела	-9.89449
трезво	-9.89478
терпеливо	-9.89543
▁российско	-9.89571
▁ж	-9.89689
▁задач	-9.89727
▁наилучши	-9.89801
▁предостави	-9.89827
рь	-9.89838
▁переход	-9.90435
▁ту	-9.90467
▁соверша	-9.90557
ски	-9.90816
че	-9.90926
чьего	-9.91008
▁бесполезны	-9.91141
дить	-9.91217
▁способност	-9.91289
▁бедном	-9.91332
▁тепл	-9.91436
нную	-9.91503
▁посредств	-9.91542
▁приносит	-9.91613
▁мест	-9.9181
▁мол	-9.91976
▁переносит	-9.92015
▁ненужном	-9.92085
▁родстве	-9.92086
▁част	-9.92234
▁стих	-9.92364
▁встреча	-9.9237
▁геро	-9.92396
лый	-9.92559
чью	-9.92593
▁ухудш	-9.927
▁явля	-9.92815
▁любит	-9.92822
мерно	-9.92877
▁встретить	-9.92949
▁официально	-9.92955
▁курс	-9.92962
▁смех	-9.92989
учи	-9.93012
преки	-9.9321
▁нужном	-9.93241
▁быстр	-9.9325
▁нужда	-9.93348
вшая	-9.93673
▁ле	-9.93742
реди	-9.93878
▁глаз	-9.93975
▁укор	-9.94063
овое	-9.94149
ского	-9.94292
▁лиц	-9.94462
▁соз	-9.94497
ia	-9.94542
▁гроз	-9.94779
▁бесконечно	-9.94855
▁чин	-9.94952
▁интерес	-9.95002
нная	-9.95004
▁последне	-9.9505
▁поста	-9.95106
▁де	-9.95182
намек	-9.95214
вой	-9.95263
важнее	-9.95285
справиться	-9.95312
особенно	-9.95475
▁большинств	-9.9549
▁существующ	-9.95537
дет	-9.95579
падать	-9.95593
▁втор	-9.95606
действовать	-9.95646
▁скромн	-9.95648
▁обдумыва	-9.95689
▁пришл	-9.95945
▁необходимы	-9.96013
▁утра	-9.9611
▁доход	-9.96131
▁серьезн	-9.96224
▁признани	-9.96642
▁нес	-9.96854
▁значительн	-9.96979
▁поступка	-9.96984
▁ласк	-9.96989
▁враг	-9.97023
▁(19	-9.97025
▁друзья	-9.97031
▁взглядам	-9.97039
согласно	-9.97076
смеха	-9.97087
▁гостеприимство	-9.97196
▁социально	-9.9721
▁стремительно	-9.97264
желание	-9.97276
▁преодоле	-9.97277
▁строг	-9.97287
▁сын	-9.97333
▁адрес	-9.97348
▁услуг	-9.97412
ры	-9.97438
▁лучшее	-9.97461
тягива	-9.97485
▁излишн	-9.97515
▁сумм	-9.97544
▁сло	-9.97605
▁род	-9.97624
▁говоря	-9.97641
▁документ	-9.9766
▁философ	-9.97694
▁снисходительно	-9.9774
▁выиграть	-9.9774
▁замешательство	-9.9774
▁издавна	-9.9774
▁иисус	-9.9774
▁лошад	-9.9774
▁мгновенно	-9.9774
▁незапамятны	-9.9774
▁немедленно	-9.9774
▁неоправданн	-9.9774
▁непонимающим	-9.9774
▁неудержим	-9.9774
▁объект	-9.9774
▁переоценива	-9.9774
▁разочарования	-9.9774
▁раскритиковать	-9.9774
▁употребления	-9.9774
▁кавалер	-9.9774
▁несогласованно	-9.9774
▁огорчени	-9.9774
▁перекладыва	-9.9774
▁подчёркива	-9.9774
▁покрасне	-9.9774
▁презрительно	-9.9774
▁бывалом	-9.9774
▁возникновени	-9.9774
▁претензи	-9.9774
▁пригодиться	-9.9774
▁вряд	-9.9774
▁разумеется	-9.9774
▁ухаживать	-9.9774
▁замешательства	-9.97741
▁недоступно	-9.97741
▁английск	-9.97741
▁говорящим	-9.97742
▁интимн	-9.97742
▁принадлежит	-9.97742
▁несчастье	-9.97743
▁препятствовать	-9.97743
▁разлук	-9.97743
▁угодничать	-9.97743
▁найдут	-9.97744
▁сожаления	-9.97744
▁сожаление	-9.97745
▁путешествия	-9.97745
▁достигнешь	-9.97745
▁веселье	-9.97746
▁латыни	-9.97747
▁способностям	-9.97749
▁затруднений	-9.9775
▁недостаткам	-9.9775
▁напряжением	-9.97751
▁высечь	-9.97753
▁урон	-9.97753
▁останется	-9.97754
▁останавливаясь	-9.97755
▁шансы	-9.97759
▁мыслей	-9.9776
▁разгромить	-9.9776
▁землю	-9.97761
▁обманешь	-9.97762
▁смущения	-9.97762
▁приготов	-9.97762
▁удивиться	-9.97765
▁ответственности	-9.97769
▁решается	-9.97771
▁добился	-9.97773
ar	-9.97776
▁наступление	-9.97782
▁повсюду	-9.97782
▁руках	-9.97782
▁тревогу	-9.97786
▁напряжения	-9.97787
▁выучить	-9.97789
▁детей	-9.97791
▁анекдота	-9.97791
▁непосильно	-9.97794
▁согласие	-9.97794
▁солнца	-9.97795
▁гостей	-9.97795
▁дружно	-9.97796
▁потерпе	-9.97798
▁жди	-9.97799
▁собрании	-9.97804
▁рисковать	-9.97804
▁сомнительном	-9.97806
▁предложения	-9.97807
▁разницы	-9.97807
▁восхищения	-9.97808
▁пищу	-9.97811
▁общаясь	-9.97811
▁строка	-9.97811
▁убежать	-9.97812
▁меняет	-9.97821
▁поклад	-9.97823
▁вперед	-9.97826
▁алкоголем	-9.97829
▁сенсаци	-9.97829
▁разрешить	-9.97833
▁забывается	-9.97835
▁разбираться	-9.97836
▁условий	-9.97841
▁зимой	-9.97842
▁убивать	-9.97843
▁ссору	-9.97846
▁скрываться	-9.97846
▁победы	-9.97847
▁информации	-9.97851
▁подальше	-9.97851
▁специальн	-9.97851
▁существом	-9.97854
▁строки	-9.97856
▁обидеть	-9.97864
▁потребовать	-9.97865
▁сойти	-9.97868
▁привык	-9.97876
▁одобрение	-9.97876
▁забыто	-9.97877
▁новости	-9.97885
▁одежда	-9.9789
▁выносить	-9.9789
▁лишать	-9.97891
▁организация	-9.97892
▁разбогатеть	-9.97893
▁вспоминать	-9.97894
▁бедным	-9.97894
▁народов	-9.97898
▁понимания	-9.97902
▁связь	-9.97912
▁хорошей	-9.97912
▁охранять	-9.97915
▁придержива	-9.97919
▁испуге	-9.97926
▁завершения	-9.97928
▁представить	-9.97935
▁неважно	-9.97937
▁изобилии	-9.97943
▁успехов	-9.97955
is	-9.97959
знавать	-9.9796
▁испортить	-9.97962
▁охватывает	-9.97965
▁обиду	-9.97968
▁победу	-9.97972
▁ненависти	-9.9798
▁врагом	-9.97981
бавляться	-9.97984
▁ошибках	-9.98
▁толку	-9.98009
▁рассуждая	-9.98019
▁лез	-9.98022
▁высказаться	-9.98024
▁заботливо	-9.98025
▁обещание	-9.98027
▁переживаний	-9.98028
▁неожиданная	-9.98029
▁груди	-9.98038
▁16	-9.9804
▁предполагать	-9.98047
▁отдыхать	-9.98054
▁ценное	-9.98055
▁едва	-9.9807
▁живой	-9.98077
▁бесплатно	-9.98082
▁пожалуйста	-9.98083
▁круг	-9.98087
▁подробности	-9.98105
▁согласиться	-9.9812
▁высказать	-9.98121
▁успел	-9.98136
▁работники	-9.98144
▁наедине	-9.98154
▁результатов	-9.98157
▁взаимно	-9.98158
▁решении	-9.98159
▁близкими	-9.98172
▁несуразное	-9.98177
▁рассердиться	-9.98186
▁особенности	-9.98189
▁играть	-9.98194
▁крепкий	-9.98203
▁новое	-9.98216
▁удобно	-9.98217
▁старый	-9.98218
▁души	-9.98223
▁лицу	-9.9823
▁безразличие	-9.98235
▁мелкие	-9.9824
▁неприятные	-9.9824
▁начинается	-9.98243
▁движения	-9.98246
▁жены	-9.9825
▁риме	-9.98269
▁старом	-9.98276
▁ходу	-9.98305
▁вопросов	-9.98322
▁различия	-9.98328
▁радоваться	-9.98355
▁устать	-9.98364
▁незначительное	-9.98396
▁строить	-9.9841
▁использует	-9.9843
▁незначительному	-9.98433
▁военных	-9.9844
▁событию	-9.98454
запутывать	-9.98495
▁множестве	-9.98509
▁заботы	-9.98509
▁глупым	-9.9851
▁духа	-9.9852
▁бесполезный	-9.9854
▁раздор	-9.98552
енная	-9.98553
▁моменты	-9.98581
▁итоге	-9.98585
▁овладеть	-9.98628
▁дороге	-9.98629
▁представление	-9.98643
▁борьбе	-9.98654
▁везде	-9.98657
▁нару	-9.98673
▁неприятного	-9.98678
▁любовью	-9.98688
▁проку	-9.98748
▁море	-9.98767
▁жале	-9.98787
▁поможет	-9.98801
▁любые	-9.98803
▁однообразн	-9.98806
▁влия	-9.98813
▁вредно	-9.98831
▁выражениях	-9.98841
▁местах	-9.9885
▁последние	-9.98877
▁меняется	-9.98903
мной	-9.98979
▁небольшой	-9.99006
▁определенно	-9.9902
▁произведения	-9.99057
▁риску	-9.99063
▁истин	-9.99071
▁можешь	-9.99082
▁подарк	-9.99089
▁женой	-9.99154
стве	-9.99177
ты	-9.99241
▁связыва	-9.99388
ита	-9.99416
▁отлич	-9.99459
us	-9.99465
▁другое	-9.99501
▁тайное	-9.99521
▁лице	-9.99644
t	-9.99664
▁современн	-9.99675
▁неясно	-9.99737
ленным	-9.99761
судьи	-9.99778
нно	-9.99781
▁свободно	-9.99782
▁достоинство	-9.99808
▁ответа	-9.99828
▁платит	-9.99863
▁мере	-9.99881
▁момента	-9.99921
▁скрыты	-9.99923
▁объясня	-9.99927
▁узна	-10.0005
▁повторение	-10.0006
▁беде	-10.0007
▁военны	-10.0009
оп	-10.0016
место	-10.0018
▁лицемерно	-10.0018
▁искусств	-10.0021
▁приглашени	-10.0022
▁глупое	-10.0024
▁распут	-10.0024
▁откладыва	-10.0027
▁цит	-10.0028
▁вопросу	-10.0029
▁здоровье	-10.0029
▁качеств	-10.003
▁метко	-10.0032
▁неожиданного	-10.0036
▁одинаково	-10.0045
▁основе	-10.0053
▁используем	-10.0057
жать	-10.0068
▁словам	-10.0071
▁план	-10.0078
▁факт	-10.0094
▁постоянного	-10.0098
обвинить	-10.0104
▁холод	-10.011
▁чужим	-10.0114
▁защищать	-10.0115
делать	-10.0119
вшемся	-10.0124
▁авторитет	-10.0125
▁я	-10.0126
▁холодно	-10.0131
▁относя	-10.0131
кт	-10.0134
вшего	-10.0141
▁думай	-10.0141
лом	-10.0145
▁добыва	-10.0148
неваться	-10.0149
▁умным	-10.0149
▁занятие	-10.015
▁делается	-10.016
▁идея	-10.0164
▁праве	-10.017
▁оказать	-10.0172
▁дни	-10.0182
лив	-10.0186
▁государственно	-10.0196
▁золото	-10.0199
извести	-10.0206
енным	-10.0212
▁суме	-10.0219
лю	-10.0219
про	-10.0228
▁известное	-10.0233
жить	-10.0234
▁страхе	-10.0234
▁стремит	-10.0242
▁скот	-10.0246
▁перестал	-10.0264
▁ну	-10.0272
▁эмоционально	-10.0275
енное	-10.0281
ением	-10.0294
стально	-10.0313
▁шутка	-10.0323
▁некоторо	-10.0327
▁многи	-10.0333
роме	-10.0348
▁расстава	-10.0352
хода	-10.0354
▁нов	-10.0363
▁ветр	-10.0372
▁голода	-10.0376
▁нелепо	-10.0388
▁поступа	-10.0392
▁трав	-10.0392
▁свойствам	-10.0404
ба	-10.0407
▁сражение	-10.0412
▁признать	-10.042
▁невест	-10.0424
▁бер	-10.043
▁представляет	-10.0434
▁предосудительно	-10.0434
▁государства	-10.0436
▁сер	-10.0461
▁невыносимы	-10.047
▁возвраща	-10.0471
▁воле	-10.0483
▁наруша	-10.0504
ру	-10.0513
▁пусто	-10.0514
or	-10.0519
▁действу	-10.0521
следователи	-10.0522
емое	-10.0523
▁маленько	-10.0525
иков	-10.053
▁достатк	-10.057
▁необдуманны	-10.0576
щи	-10.0577
▁боя	-10.0584
га	-10.0585
▁остро	-10.0588
▁сего	-10.0605
▁произнес	-10.0616
▁основн	-10.0621
▁умном	-10.0623
▁вкус	-10.0632
▁непри	-10.0644
▁приобрета	-10.0686
▁уз	-10.0686
▁отдельно	-10.0688
▁посторонним	-10.0689
▁невыносимо	-10.0698
▁сложно	-10.0699
▁труде	-10.07
ё	-10.0704
▁мо	-10.0726
▁лучшей	-10.0733
▁ве	-10.074
ш	-10.074
▁вас	-10.0756
▁крик	-10.0758
ерь	-10.0765
▁талантлив	-10.0772
▁глупы	-10.0782
дное	-10.0783
▁занять	-10.0804
богатых	-10.0808
▁законам	-10.0809
▁необоснованно	-10.0824
▁темно	-10.0826
▁предавать	-10.0843
▁искажа	-10.0848
ющейся	-10.0881
▁нежелательн	-10.0893
итель	-10.0896
▁решительн	-10.0931
▁последни	-10.0933
шен	-10.0934
ики	-10.0958
▁богато	-10.096
▁интересно	-10.0979
▁популярн	-10.0987
▁занимающи	-10.0988
▁решительны	-10.0994
▁станови	-10.0995
▁ку	-10.0999
оды	-10.1013
очку	-10.1017
▁настойчиво	-10.1017
чиной	-10.1023
▁слуша	-10.1029
▁лени	-10.1034
мы	-10.1038
▁политик	-10.1046
▁доказательств	-10.1058
▁похож	-10.1065
▁круга	-10.107
ожидать	-10.1074
вые	-10.1077
▁количества	-10.1092
▁ст	-10.1103
становиться	-10.1124
▁эконом	-10.1126
▁выговор	-10.1138
аются	-10.1143
▁тратит	-10.1164
▁основ	-10.1166
▁окружающ	-10.117
▁постоянн	-10.1171
▁гордо	-10.1176
нные	-10.1187
▁физическо	-10.1192
щийся	-10.1198
говарива	-10.1203
▁отвлекать	-10.1203
ника	-10.1212
▁наше	-10.122
▁значительном	-10.1225
он	-10.1231
▁нужна	-10.1234
▁обладающе	-10.1267
▁зна	-10.1279
▁ма	-10.1287
▁выходя	-10.129
▁предполага	-10.1293
мо	-10.1319
▁ловко	-10.1326
▁невыгодно	-10.1337
▁ба	-10.1346
▁довод	-10.1351
▁сравнени	-10.1371
▁любя	-10.1384
клониться	-10.1414
▁18	-10.1423
лишиться	-10.1426
яет	-10.1442
▁менять	-10.1454
▁представля	-10.1457
▁войск	-10.1461
▁скверно	-10.1464
▁сообщ	-10.1472
▁некоторы	-10.1487
ства	-10.1495
▁приближа	-10.1496
▁па	-10.1502
▁запутанн	-10.1522
▁несерьезно	-10.1526
▁противоречивы	-10.1531
▁кур	-10.1543
ённый	-10.1545
▁приобрет	-10.1549
▁забыть	-10.1553
остается	-10.1566
▁использу	-10.1572
▁отвечаю	-10.1574
▁поле	-10.1579
▁древнеримск	-10.1582
▁убеждения	-10.1588
▁удара	-10.1589
▁употребля	-10.163
▁лениво	-10.1639
ющимся	-10.1642
▁оказал	-10.1643
учиться	-10.1648
▁сан	-10.168
▁яв	-10.1682
▁неудач	-10.1682
▁каза	-10.1692
ящий	-10.17
▁солдат	-10.1701
▁мелоч	-10.1701
▁трудны	-10.1705
▁разным	-10.171
▁непрерывно	-10.1721
▁дальн	-10.1723
вы	-10.1724
ходиться	-10.173
▁последн	-10.1747
▁последнем	-10.175
▁сила	-10.1755
мое	-10.1761
▁зате	-10.177
▁удивительно	-10.1772
▁просьб	-10.1777
▁случа	-10.1783
ками	-10.1786
▁чисто	-10.1799
▁горяч	-10.1804
▁природ	-10.1811
од	-10.1825
▁приписыва	-10.1843
когда	-10.1852
▁правил	-10.1859
▁заключ	-10.1868
ящем	-10.1874
шло	-10.1876
щихся	-10.1883
▁смерт	-10.1891
▁лучши	-10.1894
читать	-10.1902
▁семь	-10.1909
▁посторонни	-10.1914
▁серьёзно	-10.1916
думывая	-10.1921
▁боев	-10.1928
кончить	-10.1934
лов	-10.1944
▁рассказа	-10.1944
▁участник	-10.1949
ливом	-10.1951
▁наруш	-10.1951
▁оставля	-10.1953
▁предосудительны	-10.1955
▁видел	-10.1963
▁лад	-10.1967
сделать	-10.1978
например	-10.1984
ича	-10.1987
▁женск	-10.1992
▁родным	-10.1993
изм	-10.1993
▁ро	-10.1996
▁передел	-10.1998
▁энерги	-10.2
употребляется	-10.2015
▁др	-10.2027
–	-10.2037
▁хлеб	-10.204
нравиться	-10.2047
день	-10.205
▁достойны	-10.2053
▁значимо	-10.2068
▁знаю	-10.2073
▁ценит	-10.2081
даёт	-10.2082
▁белог	-10.2086
чьи	-10.209
▁требующе	-10.2113
▁побед	-10.2116
▁налог	-10.2119
идеть	-10.2128
▁реально	-10.2132
▁грех	-10.2139
шего	-10.2148
▁стара	-10.2159
ающемся	-10.2172
▁нап	-10.2188
▁ожидания	-10.2194
▁собеседник	-10.22
▁помни	-10.2202
▁похвал	-10.2211
▁неопределённо	-10.2213
▁обид	-10.2218
▁пренебрежение	-10.2221
▁ад	-10.223
▁чу	-10.223
зволновать	-10.2231
▁непо	-10.2233
ц	-10.2236
говоришь	-10.2241
▁класс	-10.2242
▁ложь	-10.2244
▁ошибка	-10.2244
▁уделя	-10.2247
▁фраз	-10.2249
щ	-10.225
▁степен	-10.2251
▁перес	-10.2252
▁слуха	-10.2266
▁имущество	-10.2268
▁живущ	-10.2269
▁маловероятн	-10.2271
▁поступкам	-10.2272
легка	-10.2273
▁ликвид	-10.2274
▁музыкальн	-10.2274
петербург	-10.2274
▁безудержн	-10.2274
▁бесчисленно	-10.2274
▁вертикально	-10.2274
▁выпороть	-10.2274
▁добровольно	-10.2274
▁мельница	-10.2274
▁написать	-10.2274
▁населения	-10.2274
▁насильственно	-10.2274
▁недостатков	-10.2274
▁непременно	-10.2274
▁нецензурн	-10.2274
▁освещении	-10.2274
▁пастбищ	-10.2274
▁подумав	-10.2274
▁понедельник	-10.2274
▁попусту	-10.2274
▁постепенно	-10.2274
▁промолчав	-10.2274
▁разжалобить	-10.2274
▁разочарование	-10.2274
▁репутаци	-10.2274
▁самообладание	-10.2274
▁сострадания	-10.2274
▁угроза	-10.2274
▁удивляться	-10.2274
▁уничижительно	-10.2274
▁употребление	-10.2274
▁усмотрению	-10.2274
▁утаивая	-10.2274
▁афоризм	-10.2274
▁беззастенчиво	-10.2274
▁всецело	-10.2274
▁контакт	-10.2274
▁мероприяти	-10.2274
▁молодёж	-10.2274
▁невредимы	-10.2274
▁неотвязно	-10.2274
▁отомстить	-10.2274
▁сражаться	-10.2274
пьяна	-10.2274
▁расстояни	-10.2274
▁христа	-10.2274
▁назойливо	-10.2274
▁разглаша	-10.2274
▁сложатся	-10.2274
▁кончено	-10.2274
▁мальчик	-10.2274
▁пересудов	-10.2274
▁чудак	-10.2274
обошлось	-10.2274
▁память	-10.2274
▁завтра	-10.2274
▁бестолковом	-10.2274
шёл	-10.2274
▁подвох	-10.2274
▁нелегко	-10.2274
▁беспокойство	-10.2274
▁колебания	-10.2274
▁морали	-10.2274
▁выдающийся	-10.2274
▁кстати	-10.2274
▁присесть	-10.2274
▁подарок	-10.2274
▁фактически	-10.2274
▁приманк	-10.2274
▁привычек	-10.2274
▁возможностях	-10.2274
▁детям	-10.2275
▁возбуждения	-10.2275
▁усердно	-10.2275
▁понятия	-10.2275
▁ловким	-10.2275
▁забытым	-10.2275
▁забвени	-10.2275
▁явления	-10.2275
▁зависимости	-10.2275
▁области	-10.2275
▁проект	-10.2275
▁улыбаться	-10.2275
▁1960	-10.2275
▁распространение	-10.2275
▁обратно	-10.2275
▁ловкий	-10.2275
▁надеяться	-10.2275
▁придираться	-10.2276
▁вечно	-10.2276
▁сочета	-10.2276
▁воздействие	-10.2276
▁изменений	-10.2276
настоящему	-10.2276
▁примета	-10.2276
▁подойдет	-10.2276
▁подождать	-10.2276
▁незна	-10.2276
▁погубить	-10.2277
▁знаешь	-10.2277
ставление	-10.2277
▁жадности	-10.2277
▁обсуждают	-10.2277
▁оправдывает	-10.2277
▁ошибаться	-10.2277
▁опозориться	-10.2277
▁номер	-10.2277
▁происходящее	-10.2277
▁ужас	-10.2278
▁ошибиться	-10.2278
▁доверять	-10.2278
▁подготовка	-10.2278
▁195	-10.2278
▁загробн	-10.2278
▁неблаговидное	-10.2278
▁скрылся	-10.2278
▁сурово	-10.2278
▁невольного	-10.2278
▁усложн	-10.2278
▁устранить	-10.2278
▁четко	-10.2279
▁проявится	-10.2279
▁согласен	-10.2279
▁лишнего	-10.2279
▁возбуждение	-10.2279
▁общении	-10.2279
▁энергичным	-10.2279
▁полезн	-10.2279
▁предвидеть	-10.2279
▁заснуть	-10.2279
▁срочно	-10.2279
▁разрушать	-10.2279
▁везет	-10.2279
▁внуша	-10.2279
▁неистово	-10.2279
▁правды	-10.228
▁завершить	-10.228
▁философски	-10.228
▁называют	-10.228
▁войну	-10.228
▁весной	-10.2281
▁скорее	-10.2281
▁конфликта	-10.2281
▁повторя	-10.2281
▁задумываясь	-10.2281
▁болтовня	-10.2282
▁обижаться	-10.2282
▁разрушить	-10.2282
▁животных	-10.2283
▁беспорядке	-10.2283
▁важничать	-10.2283
▁оты	-10.2283
▁короткая	-10.2283
▁пройдет	-10.2283
▁молчит	-10.2284
▁мешает	-10.2284
▁исчезло	-10.2284
▁нуждается	-10.2284
▁помогают	-10.2284
▁праздновать	-10.2284
▁предупреждения	-10.2284
▁допустимо	-10.2284
▁недовольным	-10.2285
▁мелочей	-10.2285
▁разбирается	-10.2285
▁выполнения	-10.2285
▁странах	-10.2285
▁борьбы	-10.2286
▁земля	-10.2286
▁наступлении	-10.2286
енты	-10.2286
▁стыдно	-10.2286
▁данных	-10.2287
▁спокойствия	-10.2287
▁компанию	-10.2288
▁алкоголя	-10.2288
▁утешение	-10.2288
писок	-10.2288
▁пища	-10.2288
▁окружения	-10.2288
▁науки	-10.2289
▁управлять	-10.2289
▁провал	-10.229
▁страданий	-10.229
▁несогласие	-10.229
▁ссориться	-10.229
▁развиваться	-10.229
▁преступник	-10.2291
▁несчастью	-10.2292
▁тишина	-10.2292
▁днем	-10.2293
▁собрание	-10.2293
▁приказ	-10.2293
▁концу	-10.2294
▁развити	-10.2294
▁надолго	-10.2294
▁напомнить	-10.2294
▁животные	-10.2294
▁москве	-10.2295
▁дружбу	-10.2295
▁хитрости	-10.2296
▁наступивше	-10.2296
▁милая	-10.2297
▁позицию	-10.2297
▁принципов	-10.2297
▁силам	-10.2297
▁инициатив	-10.2298
▁ребенка	-10.2298
▁растение	-10.2299
▁близкий	-10.2299
▁тёплые	-10.2299
▁судьбой	-10.2299
▁говорили	-10.23
▁расцвете	-10.23
▁положено	-10.23
▁упрямом	-10.23
▁взбалмошном	-10.2301
▁появляться	-10.2301
▁привычного	-10.2301
▁благополучие	-10.2302
▁вруч	-10.2302
▁рассчитывай	-10.2302
▁соображая	-10.2302
▁ценном	-10.2302
▁родных	-10.2303
▁решимости	-10.2303
▁одетый	-10.2304
▁глазами	-10.2304
▁свал	-10.2304
▁нарушению	-10.2304
▁бедный	-10.2304
▁тоски	-10.2304
▁нового	-10.2304
▁ошибочное	-10.2305
ивать	-10.2305
24	-10.2305
▁занятий	-10.2307
▁казнить	-10.2307
▁взаимо	-10.2307
▁просьбой	-10.2307
▁терпение	-10.2307
▁крупных	-10.2307
▁сказанным	-10.2308
▁доброжелательно	-10.2308
▁беззаботно	-10.2308
▁собеседнику	-10.2309
▁кричать	-10.2309
▁уехать	-10.231
▁поэта	-10.231
▁способный	-10.231
вол	-10.2311
▁беспокоиться	-10.2312
▁оснований	-10.2312
▁развития	-10.2315
▁неожиданный	-10.2316
▁пройти	-10.2316
▁спрашивать	-10.2316
▁страдание	-10.2317
▁близкие	-10.2317
▁сочувствие	-10.2318
▁донос	-10.2318
▁горячо	-10.2318
▁изменения	-10.2319
▁надежда	-10.232
▁хорошая	-10.232
▁годами	-10.2321
▁принципы	-10.2321
▁меру	-10.2321
истов	-10.2323
▁озадачить	-10.2323
▁годы	-10.2324
▁теп	-10.2325
▁противоположные	-10.2325
▁большинства	-10.2327
▁столько	-10.2327
▁семейств	-10.2328
▁слухи	-10.2329
▁пустяками	-10.2331
▁духом	-10.2331
▁дружбы	-10.2333
▁преодолеть	-10.2334
▁удовлетворение	-10.2335
▁лишний	-10.2335
▁истину	-10.2336
▁превосходств	-10.2336
▁главный	-10.2337
▁сравнении	-10.2337
▁старого	-10.2337
рор	-10.2338
▁сознание	-10.2338
▁слабый	-10.234
▁силе	-10.234
▁партии	-10.2341
▁женщину	-10.2341
▁целом	-10.2341
▁риском	-10.2345
▁испугать	-10.2345
▁эв	-10.2345
▁преувеличива	-10.2345
▁месту	-10.2346
▁прошлым	-10.2347
▁прерва	-10.2348
▁усилиями	-10.2348
▁неприятностям	-10.2349
▁подобное	-10.2349
▁грехи	-10.2351
▁языка	-10.2352
▁законы	-10.2353
▁скрытом	-10.2354
▁решиться	-10.2354
ское	-10.2355
▁помогать	-10.2356
▁пропало	-10.2361
▁ненависть	-10.2362
▁необычное	-10.2362
▁чьем	-10.2365
▁дв	-10.2365
▁ночи	-10.2366
▁составляющ	-10.237
▁волю	-10.2371
▁заговорить	-10.2372
▁исправлять	-10.2372
▁остальным	-10.2374
везуч	-10.2375
ительный	-10.2377
▁судья	-10.2378
▁дня	-10.2378
▁оправда	-10.2379
▁слабому	-10.2379
▁сша	-10.2379
▁ответить	-10.2381
▁добрым	-10.2383
последствии	-10.2384
▁преимуществ	-10.2386
▁помнить	-10.2388
▁народа	-10.2389
▁опасном	-10.2391
▁большую	-10.2394
▁умеет	-10.2394
▁нужным	-10.2398
ойтись	-10.2404
▁взят	-10.2404
▁обвинения	-10.2405
▁брань	-10.2406
▁обуз	-10.2407
▁радостью	-10.2407
▁достойно	-10.2409
▁восстанов	-10.2412
▁забыв	-10.2413
▁дорогое	-10.2419
▁интересное	-10.2422
▁говоришь	-10.2422
▁внешность	-10.2422
▁оправдание	-10.2422
▁обыча	-10.2423
▁волк	-10.2428
▁утол	-10.2435
▁потрати	-10.2435
▁делаешь	-10.2438
тво	-10.2439
▁готово	-10.2439
▁обращает	-10.2442
▁плен	-10.2446
▁трудный	-10.2447
▁слабое	-10.2449
▁чужое	-10.2453
▁видом	-10.2462
▁благоприятны	-10.2464
▁буквально	-10.2465
▁пойти	-10.2466
▁признакам	-10.2466
▁усилиях	-10.2467
▁убедить	-10.2468
▁смыслить	-10.2472
▁материально	-10.2479
▁низк	-10.2481
▁мужа	-10.2483
▁развлечениям	-10.2484
▁неопределенном	-10.2485
скать	-10.2487
▁неясность	-10.2488
▁окружение	-10.2495
▁вина	-10.2496
▁обещания	-10.2497
▁решениях	-10.2502
▁прежни	-10.2503
▁готовить	-10.2509
▁остроумно	-10.2514
).	-10.2519
▁умны	-10.2525
▁провести	-10.2528
ent	-10.2532
▁неблаговидном	-10.2536
▁приятное	-10.2537
▁жар	-10.254
остью	-10.2542
аты	-10.2552
▁желанием	-10.2553
▁массов	-10.2553
▁стыд	-10.2553
▁ненужн	-10.2553
▁событиях	-10.2558
▁справит	-10.2561
▁безрассудно	-10.2561
▁распространя	-10.2562
▁прежне	-10.2564
▁дохода	-10.2565
▁равнодушие	-10.2566
▁грусти	-10.2573
▁доверие	-10.2575
▁пожилом	-10.2577
ётся	-10.2577
▁обозначени	-10.2579
▁помех	-10.2584
▁тоже	-10.2585
▁тихом	-10.2613
▁слабость	-10.2618
en	-10.2618
▁растеря	-10.2618
▁особенностям	-10.262
▁выделя	-10.2628
▁отнес	-10.2629
▁необходимом	-10.2643
▁проводит	-10.2647
▁возникш	-10.2649
▁связанно	-10.2652
▁цель	-10.2658
▁французск	-10.2667
▁толк	-10.2675
▁любого	-10.268
мучить	-10.2681
▁сохранить	-10.2681
▁признавать	-10.2691
▁мудр	-10.2692
чном	-10.2693
▁св	-10.2694
рывно	-10.2706
▁легкомысленно	-10.2715
дел	-10.273
▁появляется	-10.2733
▁побо	-10.2734
▁делал	-10.2734
▁модно	-10.2744
▁зап	-10.2745
▁лёгки	-10.2745
▁раст	-10.2747
▁особое	-10.2749
▁недостаточно	-10.2753
▁смене	-10.2755
▁споре	-10.2757
▁неуместно	-10.2762
▁уровн	-10.2763
иностранных	-10.2773
▁твое	-10.2785
▁оч	-10.2789
▁испытание	-10.2789
▁простой	-10.279
▁3	-10.2791
▁возник	-10.2792
▁одинаковы	-10.2805
▁це	-10.2811
▁служащ	-10.2819
▁положительным	-10.2819
▁растерянност	-10.2824
хранить	-10.2829
ж	-10.283
▁урожа	-10.2831
▁неправильны	-10.2844
▁душа	-10.2855
▁дон	-10.2859
▁яко	-10.2862
▁обознач	-10.2863
▁безрезультатн	-10.2865
▁сердце	-10.2891
▁бдительно	-10.2892
▁уважа	-10.291
▁затева	-10.2911
▁упрек	-10.2912
▁бан	-10.2923
▁сдерживать	-10.2927
следовать	-10.2927
▁уязвимо	-10.2959
▁игра	-10.2959
▁иди	-10.296
▁весело	-10.2969
▁полага	-10.2972
▁птиц	-10.2975
вер	-10.2981
нным	-10.2996
ском	-10.3008
▁общественн	-10.3015
ча	-10.3016
▁древнеримско	-10.3017
▁нужное	-10.3029
▁тё	-10.303
ихся	-10.305
▁нежелание	-10.3053
ходить	-10.3056
▁бедстви	-10.3058
▁цвета	-10.3075
▁тему	-10.3089
▁отсутству	-10.3091
▁удивительном	-10.3102
▁нарушени	-10.3102
ве	-10.3108
▁ч	-10.3119
▁божи	-10.312
▁бред	-10.3129
▁привычно	-10.3133
▁злы	-10.3142
▁своя	-10.3146
ений	-10.3154
▁подготов	-10.3197
▁греши	-10.3202
нцев	-10.3203
дающемся	-10.321
▁пьянство	-10.324
▁давай	-10.3252
▁производит	-10.3254
▁стрельб	-10.326
▁другая	-10.3263
in	-10.3276
том	-10.3276
▁a	-10.3281
▁достигнут	-10.3293
желая	-10.3297
▁судьб	-10.33
▁выражаю	-10.3302
▁необходимое	-10.3302
▁воли	-10.3307
▁постоян	-10.3308
▁заняты	-10.331
▁верующи	-10.3312
▁кисло	-10.3312
ющему	-10.3314
ишься	-10.3318
▁считают	-10.3322
▁эти	-10.3339
▁стра	-10.3343
льный	-10.3347
▁сказанном	-10.3349
▁три	-10.3351
▁перест	-10.336
▁длительн	-10.337
▁средство	-10.3377
▁трезв	-10.3383
▁узнал	-10.3386
▁мягк	-10.339
▁одиноко	-10.3391
▁устрои	-10.3397
▁тонко	-10.3404
давая	-10.3413
▁встреч	-10.3426
▁навязчив	-10.3442
▁некрасив	-10.3446
30	-10.3456
ёз	-10.3467
▁трат	-10.347
ливая	-10.3479
▁алкогольны	-10.3488
▁совершил	-10.3506
▁кр	-10.3512
▁соответствующ	-10.3514
▁пожил	-10.352
▁потеря	-10.3524
овые	-10.3526
▁знаниям	-10.3529
душевных	-10.353
счёт	-10.3542
▁уклон	-10.3549
данного	-10.3569
алось	-10.3587
ставляет	-10.359
▁моральны	-10.3597
▁российск	-10.3603
анном	-10.3606
▁спас	-10.3608
▁существующи	-10.3609
▁член	-10.3609
нное	-10.361
▁безграничн	-10.3623
▁выгодно	-10.363
▁отда	-10.3645
▁несбыточны	-10.3646
▁знач	-10.366
пугать	-10.3662
▁прислушива	-10.3664
▁доступно	-10.3674
▁человечески	-10.3677
an	-10.3678
▁праведн	-10.368
▁получил	-10.368
еда	-10.3683
▁интересам	-10.3702
▁затруднительно	-10.3712
▁кол	-10.3716
▁живет	-10.3716
▁внешн	-10.3716
▁вин	-10.3723
▁выбира	-10.3726
▁государств	-10.3728
▁политика	-10.3732
▁корыст	-10.3735
▁видны	-10.3738
держивать	-10.374
▁влиятельны	-10.3748
ация	-10.3748
ще	-10.375
▁вон	-10.3754
▁нравственны	-10.3754
▁видимост	-10.3758
▁угод	-10.3758
желании	-10.3759
45	-10.3761
▁печат	-10.3781
▁произноси	-10.3795
▁заслужи	-10.3836
▁оказыва	-10.3843
владеть	-10.3845
▁поэт	-10.3847
▁низко	-10.3854
ации	-10.3854
▁резк	-10.3857
чь	-10.3861
решительным	-10.3868
▁незаслуженно	-10.3871
нутри	-10.388
▁содержащ	-10.3881
▁кровно	-10.3884
▁i	-10.3884
теряет	-10.3907
▁определен	-10.3911
▁уст	-10.3918
данном	-10.3922
▁тяжест	-10.3929
▁требующи	-10.395
точь	-10.3952
65	-10.3952
▁одиноки	-10.3952
▁зас	-10.3956
▁материальны	-10.3982
▁ловком	-10.3983
▁признак	-10.3986
ущая	-10.3988
▁допуска	-10.3991
овых	-10.3994
▁воинско	-10.4007
▁неожиданн	-10.4013
▁активн	-10.4018
▁пе	-10.4035
▁уд	-10.405
нный	-10.4051
▁возврат	-10.4054
▁недостойно	-10.4054
▁направлен	-10.4069
це	-10.4076
▁выступа	-10.4091
смотреть	-10.4091
▁советск	-10.4097
шно	-10.4097
▁соответствующе	-10.4102
▁освободить	-10.4127
▁искренн	-10.4139
▁алкоголь	-10.4149
▁требующ	-10.4158
▁ф	-10.4158
▁небольши	-10.4161
▁дополн	-10.4163
▁размер	-10.4173
▁позор	-10.4173
▁допусти	-10.4181
▁использова	-10.4213
▁посредственно	-10.4221
ний	-10.4236
▁скор	-10.4243
▁отказа	-10.4246
дёт	-10.425
▁знание	-10.4256
▁здоров	-10.4258
словить	-10.4287
▁попада	-10.43
▁бо	-10.433
▁скупо	-10.4338
жен	-10.4339
▁религиозно	-10.4339
жду	-10.434
▁давн	-10.4347
▁уничтож	-10.4357
ший	-10.4359
▁распоряж	-10.4366
▁запрет	-10.437
▁обсужда	-10.4379
▁раздраженно	-10.4387
енности	-10.4389
▁любовны	-10.4393
▁состоя	-10.4398
▁нежелательност	-10.4421
▁изуча	-10.4425
▁спокойн	-10.4425
▁дорого	-10.4443
ступает	-10.4458
чущем	-10.4461
▁достаточн	-10.4461
▁предпринима	-10.4465
▁уда	-10.4472
род	-10.4477
▁мышлени	-10.4483
ованное	-10.4497
▁ре	-10.4502
▁осужд	-10.4524
▁требовани	-10.4524
вших	-10.4546
▁посмотре	-10.4555
▁ост	-10.4555
▁тяжёло	-10.4563
ван	-10.4582
▁пер	-10.4585
шей	-10.4586
падает	-10.4592
▁обманыва	-10.4592
оваться	-10.4592
▁посу	-10.4608
▁тверд	-10.4611
▁воспринима	-10.4617
▁основны	-10.4638
▁плат	-10.4639
8	-10.464
▁кра	-10.4643
▁государственн	-10.4657
▁удал	-10.4668
▁подчиня	-10.4668
вает	-10.4674
▁собственном	-10.468
гам	-10.468
▁окружающе	-10.4683
▁ничтожно	-10.4689
▁сделан	-10.469
▁привлекательно	-10.4692
▁расчет	-10.4694
▁занят	-10.4703
▁опас	-10.4708
▁поиск	-10.4714
полноценно	-10.4728
▁благоприятно	-10.4737
би	-10.4738
ская	-10.4739
нужный	-10.474
▁смел	-10.4744
▁смело	-10.4753
▁долгу	-10.4754
▁пан	-10.4756
дает	-10.4764
▁запас	-10.4767
▁осозна	-10.4767
▁схож	-10.4768
▁сердц	-10.4769
▁утрат	-10.4778
▁имени	-10.478
▁крупно	-10.4788
▁бесполезн	-10.4798
▁обнаружив	-10.48
▁бери	-10.4802
аже	-10.4813
▁отчаяни	-10.4814
▁семейн	-10.4818
▁бе	-10.4819
емая	-10.4825
уется	-10.4831
▁молча	-10.4835
▁перенос	-10.4836
▁безрезультатно	-10.4839
▁вежлив	-10.4847
▁мил	-10.4849
живать	-10.4851
▁две	-10.4853
▁дурн	-10.4858
▁нищи	-10.486
нь	-10.4864
▁почет	-10.4868
▁вида	-10.4871
▁приводи	-10.4888
казывается	-10.4902
▁привлеч	-10.4906
▁представител	-10.4916
ющихся	-10.4918
▁вывод	-10.4927
▁успокои	-10.493
щения	-10.4933
▁е	-10.4937
▁служащи	-10.494
▁тайн	-10.4946
▁предельно	-10.4956
▁удержать	-10.4958
ора	-10.4971
▁злоупотребля	-10.4979
▁собира	-10.5004
▁чёрны	-10.5004
▁свойства	-10.5021
▁советски	-10.5022
▁рек	-10.5034
▁отлича	-10.5041
ги	-10.5043
▁тревожить	-10.5046
▁неприят	-10.5048
▁слабо	-10.5051
▁отступ	-10.5056
▁прин	-10.5066
▁горя	-10.5079
астую	-10.5079
▁цвет	-10.5082
▁беспринципны	-10.5097
▁слож	-10.5109
нов	-10.5118
▁оценк	-10.5123
▁усили	-10.5131
едине	-10.5143
▁роскошн	-10.5147
▁сама	-10.515
▁хорош	-10.5153
ющего	-10.5155
▁чужо	-10.5168
▁попытк	-10.5182
▁честном	-10.5182
▁болезненн	-10.5185
ям	-10.5186
разные	-10.5187
▁зл	-10.5189
▁испытани	-10.5202
стре	-10.521
лять	-10.5212
▁ложно	-10.5214
▁навязыва	-10.5225
es	-10.5247
вшие	-10.5247
▁примен	-10.5252
▁малознач	-10.526
▁здраво	-10.526
ирать	-10.5278
куда	-10.5279
ложный	-10.5288
▁нам	-10.5289
той	-10.5299
▁идеал	-10.5301
имо	-10.5302
▁черт	-10.5307
▁ставит	-10.5311
▁ограничен	-10.5311
фор	-10.532
емого	-10.5324
▁военно	-10.5331
зовать	-10.5336
еть	-10.5336
▁обману	-10.5345
говорится	-10.535
ходящее	-10.5351
▁душевны	-10.5353
сюда	-10.5354
фраза	-10.5355
▁свет	-10.5357
буквально	-10.5359
▁политическ	-10.5359
▁ясн	-10.536
▁умственно	-10.5365
▁подразумева	-10.5367
▁упор	-10.5368
хочется	-10.5371
▁целы	-10.5376
щать	-10.5385
▁сдержать	-10.5386
▁ценн	-10.5386
енно	-10.5387
▁самостоятельно	-10.5389
жи	-10.5392
▁сообщи	-10.5402
▁коллектив	-10.5404
ивают	-10.5406
▁бурно	-10.5407
шибся	-10.5418
▁двига	-10.5418
ведении	-10.5421
▁выигрыш	-10.5421
▁столкновени	-10.5421
▁шутк	-10.5422
▁причиня	-10.5422
делу	-10.5424
▁дореволюционн	-10.5431
▁борьб	-10.5432
▁тревожно	-10.5439
▁пропа	-10.5441
голод	-10.5445
способен	-10.5446
шки	-10.5446
можешь	-10.5449
▁привет	-10.5455
▁неп	-10.5455
▁превосход	-10.5458
▁пустяк	-10.546
▁работник	-10.5463
▁пользова	-10.5464
▁поставленн	-10.5482
▁скандал	-10.5485
▁застави	-10.5492
здоров	-10.5497
▁ненужно	-10.5498
▁влияни	-10.5498
показ	-10.5507
истым	-10.5508
ённых	-10.5515
▁рассерди	-10.5522
▁ошиб	-10.5523
▁слух	-10.553
▁трудностям	-10.5531
▁книг	-10.5531
▁безвыходн	-10.5532
▁единомышленник	-10.5534
▁позици	-10.5534
дал	-10.5534
▁сумасшедши	-10.5534
чивый	-10.5536
ическом	-10.5536
▁пустякам	-10.5538
▁неблагоприятно	-10.5542
▁неудобства	-10.5547
▁анг	-10.555
▁вариант	-10.5551
▁присутствие	-10.5553
нет	-10.5554
▁одн	-10.5556
стало	-10.5558
значительный	-10.5558
▁з	-10.5559
▁вне	-10.556
▁взаимовыручк	-10.556
▁близким	-10.556
▁беззаботн	-10.556
▁высказа	-10.5561
▁казни	-10.5564
▁праздник	-10.5565
▁развива	-10.5565
таки	-10.5565
ённым	-10.5568
▁отечеств	-10.5568
▁обмен	-10.5569
свят	-10.5569
равление	-10.5569
▁команд	-10.5569
▁тупо	-10.5571
▁происходящем	-10.5575
▁чепух	-10.5576
▁показыва	-10.5579
▁отдых	-10.558
▁равны	-10.5583
▁упрям	-10.5584
бивать	-10.5584
▁ресурс	-10.5589
▁брани	-10.5591
▁мороз	-10.5593
кончилось	-10.5594
гнать	-10.5601
вшей	-10.5601
звратно	-10.5603
▁дружб	-10.5603
▁отдыха	-10.5605
▁олимпийск	-10.5607
▁утвердительн	-10.5607
игнорирова	-10.5607
неблагодарностью	-10.5607
фразеологи	-10.5607
▁азартн	-10.5607
▁бездействии	-10.5607
▁беззащитны	-10.5607
▁безнадежно	-10.5607
▁беспамятств	-10.5607
▁бессовестно	-10.5607
▁взрослы	-10.5607
▁возмезди	-10.5607
▁возражать	-10.5607
▁всерьез	-10.5607
▁галлюцинациями	-10.5607
▁ежедневно	-10.5607
▁жалостлив	-10.5607
▁заканчивается	-10.5607
▁идеологическ	-10.5607
▁иждивении	-10.5607
▁избирател	-10.5607
▁империи	-10.5607
▁исподтишка	-10.5607
▁лентяй	-10.5607
▁ловушку	-10.5607
▁мельчайши	-10.5607
▁мифологии	-10.5607
▁мозгов	-10.5607
▁наверняка	-10.5607
▁навеселе	-10.5607
▁навечно	-10.5607
▁напористо	-10.5607
▁насколько	-10.5607
▁невообразимо	-10.5607
▁неминуемо	-10.5607
▁неоднократно	-10.5607
▁непоправимо	-10.5607
▁непостоянств	-10.5607
▁оплошности	-10.5607
▁ориентир	-10.5607
▁первоисточник	-10.5607
▁плодами	-10.5607
▁побежденного	-10.5607
▁попреками	-10.5607
▁почтение	-10.5607
▁пресмыкаться	-10.5607
▁престиж	-10.5607
▁присутствии	-10.5607
▁промедления	-10.5607
▁психоз	-10.5607
▁пулемето	-10.5607
▁разногласи	-10.5607
▁разнообразии	-10.5607
▁расслабиться	-10.5607
▁революции	-10.5607
▁регулярн	-10.5607
▁родителям	-10.5607
▁самообладания	-10.5607
▁сигнал	-10.5607
▁славянск	-10.5607
▁служебны	-10.5607
▁созвезди	-10.5607
▁старославянско	-10.5607
▁сформулирован	-10.5607
▁территори	-10.5607
▁транспорт	-10.5607
▁умертвить	-10.5607
▁флангов	-10.5607
▁флиртовать	-10.5607
▁хвост	-10.5607
▁хорошенько	-10.5607
▁церкви	-10.5607
▁чересчур	-10.5607
▁шататься	-10.5607
▁ядовиты	-10.5607
сквозь	-10.5607
▁ознакомлен	-10.5607
▁туалет	-10.5607
▁учреждени	-10.5607
▁хозяева	-10.5607
повиновении	-10.5607
▁беззаконие	-10.5607
▁вранье	-10.5607
▁заболевание	-10.5607
▁невоспитанн	-10.5607
▁писать	-10.5607
▁проведешь	-10.5607
▁распущенно	-10.5607
▁родители	-10.5607
▁спохватываю	-10.5607
▁безуспешно	-10.5607
▁недопустим	-10.5607
▁оповеща	-10.5607
▁соглашаться	-10.5607
▁эмоци	-10.5607
▁врачей	-10.5607
▁завоевать	-10.5607
▁звезд	-10.5607
▁порядочны	-10.5607
▁рассудительнее	-10.5607
▁розовы	-10.5607
▁тюрьм	-10.5607
▁исчезновени	-10.5607
▁невзгод	-10.5607
▁отчаяться	-10.5607
▁стабильный	-10.5607
▁ходьбы	-10.5607
▁приблизительно	-10.5607
▁просчет	-10.5607
▁говорящему	-10.5607
▁развязно	-10.5607
▁вспотеть	-10.5607
▁нормально	-10.5607
▁победител	-10.5607
▁произойдёт	-10.5607
▁заведено	-10.5607
▁продук	-10.5607
▁система	-10.5607
▁неподходяще	-10.5607
▁явлений	-10.5607
▁est	-10.5607
▁ближе	-10.5607
▁двуличны	-10.5607
▁сегодня	-10.5607
▁ограбить	-10.5607
кротить	-10.5607
▁возможностям	-10.5608
▁миновать	-10.5608
▁орудие	-10.5608
▁веселья	-10.5608
рыцарски	-10.5608
▁выполнено	-10.5608
▁рождения	-10.5608
▁разбору	-10.5608
▁заносчив	-10.5608
▁никчемны	-10.5608
▁штык	-10.5608
▁бутылк	-10.5608
▁выжида	-10.5608
▁скорби	-10.5608
▁рукава	-10.5608
▁судебн	-10.5608
▁больница	-10.5608
▁сожалению	-10.5608
▁грамотный	-10.5608
▁термин	-10.5608
▁критиковать	-10.5608
▁заново	-10.5608
▁наготове	-10.5608
▁ведущий	-10.5608
▁магическ	-10.5608
▁превратности	-10.5608
▁артист	-10.5608
▁вечер	-10.5608
▁античности	-10.5608
▁выяснять	-10.5608
▁односторонне	-10.5608
▁расстреливать	-10.5608
▁неуверенно	-10.5608
▁равносильн	-10.5608
▁предугадать	-10.5608
▁удалился	-10.5608
▁справедливость	-10.5608
▁воздействия	-10.5608
▁прощании	-10.5608
▁выделяющийся	-10.5608
▁нищенствовать	-10.5608
▁происходило	-10.5608
▁милосердным	-10.5608
▁подавленно	-10.5608
▁решаемы	-10.5608
▁непосвящ	-10.5608
▁хаос	-10.5608
▁безразличен	-10.5608
▁изменилось	-10.5608
▁повлия	-10.5608
▁поддержке	-10.5609
▁сомневаясь	-10.5609
▁незачем	-10.5609
▁возглас	-10.5609
▁ногах	-10.5609
▁изнурять	-10.5609
▁преследовать	-10.5609
▁осадить	-10.5609
▁финансов	-10.5609
▁ногами	-10.5609
▁прощание	-10.5609
▁шуток	-10.5609
▁добившись	-10.5609
▁церемониться	-10.5609
▁затруднение	-10.5609
▁сообразить	-10.5609
▁конфликтов	-10.5609
▁опытном	-10.5609
▁обедне	-10.5609
▁смесь	-10.5609
хождение	-10.5609
▁воздается	-10.5609
▁фун	-10.5609
▁бережливости	-10.561
▁проигрыш	-10.561
▁ожидаемом	-10.561
▁возможностей	-10.561
брод	-10.561
▁гром	-10.561
▁традиционное	-10.561
▁умирать	-10.561
▁напитками	-10.561
▁скучно	-10.561
▁ситуацией	-10.561
▁успокоение	-10.561
▁начальства	-10.561
▁карты	-10.561
▁москвы	-10.561
выр	-10.561
▁колокол	-10.5611
▁присмотра	-10.5611
▁роль	-10.5611
▁хитрый	-10.5611
▁близость	-10.5611
▁туда	-10.5611
▁молитвы	-10.5611
▁выступлени	-10.5611
▁металлы	-10.5611
▁обычаев	-10.5611
уха	-10.5611
▁подчиненным	-10.5611
▁уверенность	-10.5611
▁приготовлен	-10.5611
▁напряжённ	-10.5611
▁нуждаются	-10.5611
▁ненормальный	-10.5611
▁печально	-10.5611
▁желаемое	-10.5612
послушание	-10.5612
▁ожидалось	-10.5612
▁известен	-10.5612
▁россиян	-10.5612
▁запоминать	-10.5612
▁тянется	-10.5612
▁безнаказанным	-10.5612
▁остальное	-10.5612
▁мелочах	-10.5612
▁благодарность	-10.5612
▁центром	-10.5613
▁осуждения	-10.5613
▁энтузиазмом	-10.5613
▁унизительно	-10.5613
▁хвастливом	-10.5613
▁подготовки	-10.5613
▁идеально	-10.5613
▁нигде	-10.5613
▁украл	-10.5614
▁болтливом	-10.5614
▁раздумья	-10.5614
▁свидетелей	-10.5614
▁ценнее	-10.5614
▁листья	-10.5614
ск	-10.5614
охнуть	-10.5614
▁концов	-10.5614
▁невысокого	-10.5614
▁повезет	-10.5614
▁принуждать	-10.5614
▁игроков	-10.5614
▁досадовать	-10.5615
▁назад	-10.5615
▁поступков	-10.5615
▁сделанного	-10.5615
▁просят	-10.5615
▁громкий	-10.5615
▁желанию	-10.5615
▁препятствиями	-10.5615
▁воровств	-10.5615
▁нищеты	-10.5615
▁назло	-10.5615
▁рассвета	-10.5615
▁близости	-10.5615
▁руководства	-10.5615
▁вариантов	-10.5616
▁образумиться	-10.5616
▁расходы	-10.5616
▁рангах	-10.5616
▁письм	-10.5616
худеть	-10.5616
▁оскорблять	-10.5616
▁присказка	-10.5616
▁выводов	-10.5616
▁восхвалять	-10.5617
▁ушел	-10.5617
▁знакомых	-10.5617
▁половин	-10.5617
▁недалеки	-10.5617
везении	-10.5617
▁императора	-10.5617
▁откровенностью	-10.5617
▁представлении	-10.5617
▁стараясь	-10.5618
▁высказываниях	-10.5618
▁ценность	-10.5618
▁руками	-10.5618
▁дышать	-10.5618
▁умений	-10.5618
▁бестолковый	-10.5618
▁пространство	-10.5619
▁безжалостно	-10.5619
▁головой	-10.5619
▁полагается	-10.5619
▁кратко	-10.5619
▁остальных	-10.5619
▁отличается	-10.5619
▁сожалеть	-10.5619
▁взглядах	-10.5619
▁подходят	-10.5619
▁притеснения	-10.5619
▁здоровья	-10.5619
▁история	-10.562
▁белый	-10.562
▁культуры	-10.562
▁предприимчивым	-10.562
▁усердием	-10.562
▁обстановка	-10.562
▁просыпаться	-10.562
▁осознавать	-10.562
▁неудачах	-10.562
▁масла	-10.5621
▁исполнено	-10.5621
▁услышать	-10.5621
▁затраты	-10.5621
▁пожар	-10.5622
▁низши	-10.5622
▁уступать	-10.5622
дёшь	-10.5622
▁врагов	-10.5622
▁заплатить	-10.5622
▁правительств	-10.5622
▁торопливо	-10.5622
▁хвалиться	-10.5623
▁приставать	-10.5623
▁реальности	-10.5623
▁смелости	-10.5623
▁горевать	-10.5624
▁владе	-10.5624
▁называемо	-10.5624
▁заодно	-10.5624
▁меняют	-10.5624
▁простые	-10.5624
▁(180	-10.5625
▁поэзии	-10.5625
▁негативное	-10.5625
▁богатстве	-10.5625
▁мучений	-10.5625
▁уходит	-10.5626
▁презрения	-10.5626
▁сведению	-10.5626
▁заметить	-10.5627
▁задержки	-10.5627
▁муки	-10.5627
▁пренебрега	-10.5627
▁предполагает	-10.5628
▁праведных	-10.5628
▁заканчиваться	-10.5628
▁управления	-10.5628
▁существующее	-10.5628
▁боясь	-10.5628
▁предназначено	-10.5628
▁вынести	-10.5628
▁числ	-10.5629
▁проучить	-10.5629
▁руководителей	-10.5629
▁придется	-10.5629
▁толпа	-10.5629
▁жених	-10.5629
▁положительное	-10.5629
▁фед	-10.5629
▁напасть	-10.5629
▁фразы	-10.5629
▁способами	-10.563
▁махом	-10.563
▁соответствова	-10.563
▁мнимыми	-10.563
мешать	-10.563
▁замкнут	-10.563
▁неопытный	-10.563
▁поощрение	-10.563
▁действию	-10.563
▁сказано	-10.563
▁хладнокровие	-10.5631
▁натуры	-10.5631
▁представлениям	-10.5631
▁найдет	-10.5631
▁земли	-10.5631
▁зуб	-10.5632
▁бессмыслица	-10.5632
▁обойтись	-10.5632
▁берется	-10.5632
▁доказать	-10.5633
▁мудрый	-10.5633
▁строю	-10.5633
▁увлек	-10.5634
▁успеть	-10.5634
▁уговорам	-10.5635
▁безразличия	-10.5635
▁разврату	-10.5635
▁заботах	-10.5636
▁угрожающе	-10.5637
▁удается	-10.5637
▁сорок	-10.5638
▁маленький	-10.5638
▁опасения	-10.5639
▁телом	-10.5639
▁невидим	-10.5639
▁рассы	-10.5639
▁безво	-10.5639
▁заблуждения	-10.5639
▁милый	-10.5639
▁влияет	-10.5639
▁закончилось	-10.5639
▁замучить	-10.564
▁недостижим	-10.564
▁значительным	-10.564
▁невозможным	-10.564
▁расположения	-10.564
▁моряк	-10.5641
▁необыкновенном	-10.5641
▁самоуверенном	-10.5641
▁опасаясь	-10.5641
▁крови	-10.5641
▁избивать	-10.5641
▁живых	-10.5642
▁покажет	-10.5642
▁слоган	-10.5642
▁найдется	-10.5643
▁истинная	-10.5643
▁сознания	-10.5643
▁неосмотрительно	-10.5643
▁табел	-10.5643
▁легкая	-10.5643
▁узнает	-10.5644
▁выдать	-10.5644
▁дружба	-10.5645
▁службе	-10.5645
▁огромном	-10.5646
▁заработать	-10.5646
▁влиянию	-10.5646
▁трудолюбивым	-10.5646
▁ныне	-10.5646
▁обходится	-10.5646
▁вознаграждение	-10.5647
▁бумаге	-10.5647
▁талантливый	-10.5647
▁неприличное	-10.5647
▁доказывать	-10.5647
▁достается	-10.5648
▁понимание	-10.5648
▁сердцу	-10.5648
▁глубокая	-10.5649
▁наказании	-10.5649
▁помещении	-10.5649
▁ноги	-10.565
▁солнце	-10.565
▁нападении	-10.565
▁тупом	-10.565
▁приятный	-10.565
▁незаметным	-10.5651
▁общения	-10.5651
▁затруднения	-10.5651
▁отстаива	-10.5651
▁праздника	-10.5651
▁массе	-10.5651
▁римско	-10.5651
▁аргумент	-10.5652
▁битв	-10.5652
четливо	-10.5652
▁греческо	-10.5652
▁прижать	-10.5652
▁коллектива	-10.5652
▁хвастаться	-10.5653
▁огне	-10.5653
▁малым	-10.5654
▁урок	-10.5655
▁нарас	-10.5655
▁стоящий	-10.5656
▁чувствует	-10.5656
▁сп	-10.5656
▁массовое	-10.5657
▁настрада	-10.5657
▁учебе	-10.5658
▁случайности	-10.5658
ию	-10.5658
▁проявляемо	-10.5658
резать	-10.5659
▁оправдывающе	-10.566
▁войне	-10.5661
▁врагами	-10.5662
▁глуб	-10.5662
▁присутствием	-10.5662
ражению	-10.5663
▁группы	-10.5663
▁влиятельным	-10.5663
▁разобра	-10.5664
ша	-10.5665
▁законов	-10.5665
▁надеждах	-10.5666
▁итог	-10.5666
▁предприятие	-10.5667
▁разрешению	-10.5667
▁добраться	-10.5668
▁евангели	-10.5668
▁крайности	-10.5668
▁личности	-10.5669
▁светово	-10.5669
▁ненужным	-10.5669
▁знакомство	-10.567
▁строгости	-10.567
▁вредного	-10.5671
▁недостаток	-10.5671
▁менеджер	-10.5671
▁удача	-10.5671
▁умение	-10.5671
▁неловком	-10.5671
▁старые	-10.5672
▁довольству	-10.5672
▁плоды	-10.5673
▁сплетни	-10.5673
▁казаки	-10.5673
▁наказывают	-10.5674
▁главного	-10.5674
▁надоесть	-10.5674
▁друзьями	-10.5675
▁милость	-10.5676
▁случайный	-10.5676
▁высказывани	-10.5676
▁публично	-10.5677
▁принадлежа	-10.5677
▁ценой	-10.5677
▁приём	-10.5678
▁игрок	-10.5679
▁славы	-10.5679
▁жену	-10.568
▁деятеля	-10.5681
▁приятного	-10.5682
▁знаменит	-10.5682
▁самоотверженно	-10.5682
▁сдаться	-10.5683
▁пустыми	-10.5683
▁стоять	-10.5683
▁слеп	-10.5683
▁закончиться	-10.5684
▁оценки	-10.5684
▁цену	-10.5684
▁пренебрежением	-10.5685
▁книги	-10.5685
▁единомышленники	-10.5685
1941	-10.5686
▁сына	-10.5686
▁насилия	-10.5687
▁трудностями	-10.5687
▁всяком	-10.5688
▁привычку	-10.569
▁женщиной	-10.569
▁способы	-10.569
▁молодого	-10.5692
▁приятные	-10.5692
▁лучших	-10.5692
▁ровня	-10.5693
мыслить	-10.5693
▁слушаться	-10.5694
ч	-10.5694
▁сознанием	-10.5695
▁легким	-10.5696
▁автор	-10.5698
▁поражение	-10.5699
▁прожив	-10.5699
▁дружеск	-10.5699
▁основой	-10.5699
▁выступления	-10.57
▁утверждение	-10.57
▁годов	-10.5701
▁знак	-10.5701
чать	-10.5701
▁границ	-10.5703
▁нем	-10.5703
▁стремительном	-10.5705
▁поесть	-10.5705
▁затруднительном	-10.5706
▁очевидного	-10.5706
▁деятельностью	-10.5707
▁ненужные	-10.5709
▁ссоре	-10.5709
▁достоинствам	-10.5709
▁советам	-10.571
▁идеи	-10.5711
▁писателя	-10.5712
▁невиновно	-10.5713
▁числе	-10.5713
▁равновесие	-10.5713
▁объяснение	-10.5714
▁нелепом	-10.5715
▁мастера	-10.5716
▁неумный	-10.5716
▁желаниями	-10.5717
▁предметом	-10.5717
▁возрасту	-10.5718
▁обмана	-10.5719
▁вода	-10.5719
▁гулящ	-10.5719
▁ночью	-10.5719
▁периода	-10.572
▁дураком	-10.572
▁невероятное	-10.572
▁избиени	-10.572
▁детали	-10.5721
ульт	-10.5722
▁достоинствами	-10.5723
▁торгу	-10.5726
высше	-10.5726
▁разбира	-10.5728
▁доставши	-10.5728
▁находивш	-10.5729
▁усиленно	-10.5729
▁держит	-10.573
▁предприятия	-10.5731
▁супруга	-10.5731
▁служить	-10.5731
▁общая	-10.5732
▁слав	-10.5733
▁плач	-10.5736
▁важен	-10.5738
▁купить	-10.5738
▁мнения	-10.5741
▁тягот	-10.5742
▁проступк	-10.5742
▁растения	-10.5743
▁ласки	-10.5743
▁умом	-10.5744
▁спешке	-10.5744
▁предательски	-10.5748
▁развитие	-10.575
▁неудачно	-10.575
▁стат	-10.5751
▁знакомым	-10.5752
▁остав	-10.5753
▁сесть	-10.5753
▁преклон	-10.5753
▁профессия	-10.5755
▁ускоренн	-10.5758
▁году	-10.5758
▁важная	-10.5758
мириться	-10.5759
▁глупая	-10.5762
▁пожаловаться	-10.5762
▁взглядами	-10.5762
обилии	-10.5763
▁бежать	-10.5767
▁злая	-10.5768
▁родился	-10.5768
▁результаты	-10.5771
▁недооценива	-10.5771
▁неловкое	-10.5772
▁невозмутимо	-10.5772
▁чуть	-10.5772
▁последствиях	-10.5772
латын	-10.5773
зор	-10.5773
▁уважением	-10.5775
▁известного	-10.5776
▁семи	-10.5777
▁апо	-10.5777
силия	-10.5778
▁притвориться	-10.578
▁довольстве	-10.5781
▁тревожное	-10.5782
▁толп	-10.5783
▁существенное	-10.5784
▁волей	-10.5785
▁придёт	-10.5786
re	-10.5787
▁очевидн	-10.5787
▁характеру	-10.5787
лава	-10.5788
▁кажу	-10.5793
▁аг	-10.5793
ёй	-10.5794
▁маловероятно	-10.5795
▁рассказыва	-10.5798
▁пиш	-10.5798
▁болезнь	-10.58
▁безвыходной	-10.5802
▁бедной	-10.5803
▁немолодой	-10.5804
▁красне	-10.5806
▁скрытое	-10.5806
▁принуждени	-10.5807
▁смешном	-10.5808
▁рассмотре	-10.5811
▁прошлого	-10.5811
▁кровь	-10.5814
▁силами	-10.5819
▁суди	-10.5822
предосудительное	-10.5831
▁отступлени	-10.5834
душ	-10.5835
▁ссылк	-10.5835
▁образц	-10.5836
▁победе	-10.5836
▁вреда	-10.5837
▁категорическ	-10.584
▁страшном	-10.5843
▁тяжёлое	-10.5844
▁математик	-10.5846
▁поговорки	-10.5848
▁выгляде	-10.5849
▁ощущения	-10.5849
▁богом	-10.5849
▁живущи	-10.5849
▁спешк	-10.5852
▁трус	-10.5853
▁ярость	-10.5855
▁обиде	-10.5856
▁чер	-10.586
▁стоящи	-10.5873
ъесть	-10.5873
▁покровительств	-10.5876
▁доб	-10.5886
▁получени	-10.5888
▁лицом	-10.5888
▁отдаленн	-10.589
▁сосед	-10.5893
▁мудрым	-10.5895
▁судя	-10.5898
ана	-10.5898
▁твердо	-10.59
▁подходящ	-10.59
▁посмотри	-10.5901
▁бел	-10.5903
▁in	-10.5903
▁приветстви	-10.5904
▁строй	-10.5906
▁молчание	-10.5907
дающий	-10.5908
аемого	-10.5909
▁8	-10.5911
тельности	-10.5911
▁моло	-10.5913
▁резком	-10.592
▁подробност	-10.5921
▁злоб	-10.5926
▁завет	-10.5926
▁следую	-10.5927
▁оставш	-10.5928
▁злой	-10.5929
кли	-10.593
▁ответу	-10.5934
▁солом	-10.5934
▁упущени	-10.5936
▁перемена	-10.5936
▁поговорить	-10.5937
▁хорошими	-10.5938
▁собственны	-10.5941
▁делаю	-10.5942
▁порядке	-10.5944
▁эффективно	-10.5947
ично	-10.5947
▁простого	-10.5948
▁бесполезном	-10.5952
▁учить	-10.5955
▁тяжёлы	-10.5959
▁здрав	-10.5967
▁суровы	-10.5973
▁замужеств	-10.5975
ливости	-10.5977
▁значительное	-10.5977
▁существовавши	-10.5979
▁попытаться	-10.5979
▁степно	-10.5979
обили	-10.5981
▁проверенн	-10.5982
илась	-10.5985
▁приста	-10.5985
держания	-10.5987
бежать	-10.5993
стях	-10.5997
▁угощение	-10.5998
честен	-10.6001
еров	-10.6001
щем	-10.6003
▁выбра	-10.6005
▁коня	-10.6006
▁слома	-10.6008
▁черта	-10.6011
▁передач	-10.6015
▁переходит	-10.6015
гадывать	-10.6016
иф	-10.6018
прос	-10.602
▁выгод	-10.6021
▁происхождение	-10.6026
▁чувствующ	-10.6028
▁пожелания	-10.6028
▁трезво	-10.6036
▁корм	-10.6037
▁молодц	-10.604
ведение	-10.6041
▁событием	-10.6041
▁спа	-10.6045
учить	-10.6049
▁применял	-10.6058
▁языке	-10.6062
▁прекращени	-10.6064
▁совести	-10.6065
гу	-10.6066
▁злоупотреблени	-10.6066
▁драк	-10.6067
▁беспокоит	-10.6071
уч	-10.6073
▁проверк	-10.6082
▁имеющи	-10.6084
▁американ	-10.6084
▁отвлекающи	-10.6086
▁игре	-10.6087
тись	-10.6089
руд	-10.6089
▁совершённы	-10.6094
аль	-10.6096
кий	-10.6096
благодарным	-10.6099
▁обстоятельствам	-10.6104
▁товаре	-10.6108
суждено	-10.6109
видно	-10.6112
▁бу	-10.6122
▁скрыто	-10.6122
▁проис	-10.6122
▁предательство	-10.6125
сжато	-10.6125
ге	-10.6125
▁повышени	-10.6129
▁вызов	-10.613
▁требованиям	-10.6133
▁нежности	-10.6136
чная	-10.6139
▁совершенств	-10.614
▁захват	-10.6143
▁пораз	-10.6143
▁беспринципн	-10.6145
▁предчувств	-10.6146
пуститься	-10.6147
▁6	-10.6148
▁поспешност	-10.6156
▁усиливать	-10.6158
▁ограничени	-10.616
овь	-10.6161
затруднительного	-10.6164
нном	-10.6166
▁догад	-10.6169
▁болезненно	-10.6169
ина	-10.6172
▁хозяйственн	-10.6173
▁психически	-10.6175
▁преграда	-10.6175
уставать	-10.618
▁совершенн	-10.6181
▁осень	-10.6198
ностей	-10.6202
отвор	-10.6204
▁любопытны	-10.6204
▁дешевы	-10.6216
▁объяснени	-10.622
▁нестерпим	-10.6221
▁подозрени	-10.6223
▁незначительн	-10.6227
▁расстреля	-10.6228
браться	-10.6238
▁просьба	-10.6244
▁сделк	-10.6251
▁неразумны	-10.6254
бирается	-10.6258
▁неправильное	-10.6258
▁упущенно	-10.6261
▁5	-10.6261
▁удовольствия	-10.6267
ушки	-10.6268
▁нервн	-10.6271
▁власт	-10.6271
▁благоприятн	-10.6278
▁понимани	-10.6291
очеред	-10.6293
▁протяж	-10.6301
▁умелом	-10.6309
▁восход	-10.631
неволе	-10.6312
▁порядка	-10.6312
▁стремя	-10.6314
▁прошедши	-10.6317
ица	-10.6321
ладно	-10.6324
тер	-10.6344
▁черед	-10.6347
уют	-10.6349
▁предмете	-10.6351
ники	-10.6354
любить	-10.6357
идание	-10.6359
▁указыва	-10.6367
▁рассужда	-10.6368
▁многим	-10.6372
▁определённ	-10.6373
▁неразумно	-10.6376
▁неприязненн	-10.6396
способным	-10.6403
известный	-10.6405
шел	-10.6408
▁лучшего	-10.641
▁способе	-10.6417
▁негод	-10.6419
▁глухо	-10.6433
▁последним	-10.6445
▁расстройство	-10.6448
ующем	-10.6454
буд	-10.6454
▁полезно	-10.6454
▁будущ	-10.6457
▁выслуша	-10.6459
▁тыл	-10.6459
▁затянувше	-10.6468
▁изменя	-10.6474
падение	-10.6479
▁выражени	-10.6479
▁замечания	-10.6486
▁разбить	-10.6488
▁казак	-10.6489
▁шв	-10.649
ался	-10.6494
▁изначальн	-10.6499
▁замечание	-10.6502
два	-10.6503
▁прекрасно	-10.6503
▁дном	-10.6509
▁полз	-10.6518
▁лат	-10.6518
▁неприятным	-10.6529
▁этому	-10.6534
▁лишённо	-10.6537
отчаяние	-10.6539
лучилось	-10.6553
▁снег	-10.6557
▁мене	-10.6563
▁чистот	-10.6565
▁расправ	-10.6566
▁существенно	-10.6571
▁различн	-10.6575
▁отвлека	-10.6578
ником	-10.6586
▁незначительным	-10.6586
▁корн	-10.6595
▁богат	-10.6602
▁несуществующ	-10.6618
▁су	-10.6619
▁("	-10.6623
▁неслы	-10.6624
▁основание	-10.6626
предсказуемости	-10.6627
▁участ	-10.6628
▁зач	-10.6635
▁робко	-10.6642
▁смягч	-10.6644
смирно	-10.6648
▁находчив	-10.6655
ар	-10.6659
ительным	-10.6659
портить	-10.6659
▁утренн	-10.6662
▁рассказ	-10.6663
▁торговл	-10.6667
гося	-10.6667
▁встрети	-10.6673
▁действительност	-10.6679
пренебрежительно	-10.668
точные	-10.6681
▁безопасно	-10.6686
▁реальны	-10.6686
▁закр	-10.6688
▁завершени	-10.6691
▁склонност	-10.6692
▁рыно	-10.67
▁связя	-10.6703
▁уваж	-10.6704
▁стро	-10.6709
▁неловко	-10.6717
▁близк	-10.6719
▁рыб	-10.6726
▁нибудь	-10.6735
▁достигает	-10.6738
▁вызывающем	-10.6754
▁подвергать	-10.6754
▁применяем	-10.6759
▁чудодейственн	-10.6761
▁коренны	-10.6764
▁светло	-10.6765
▁разрушени	-10.6782
бодрит	-10.6782
ес	-10.6783
одеждой	-10.6792
▁требование	-10.6795
▁мелк	-10.6796
▁упустит	-10.6799
▁испытывае	-10.68
брать	-10.6814
▁пустяковы	-10.6815
▁приве	-10.6821
цу	-10.6824
▁противоположно	-10.6826
▁сообража	-10.6831
▁обращ	-10.6832
▁совершает	-10.6839
▁противоречи	-10.6842
un	-10.686
▁войска	-10.6862
▁улучш	-10.6869
▁интриг	-10.687
движу	-10.687
ившемся	-10.6872
▁максимально	-10.6874
айте	-10.6889
▁вызванно	-10.689
▁идее	-10.6894
▁грозящ	-10.69
▁све	-10.6907
▁сцен	-10.6907
▁положением	-10.6932
▁солдата	-10.6941
▁пла	-10.6941
▁горячи	-10.6941
▁зар	-10.6946
▁затруднительн	-10.6949
▁замен	-10.695
▁необходимым	-10.695
▁принося	-10.6953
гр	-10.6964
▁воински	-10.6964
▁продолж	-10.6968
▁глух	-10.6975
усть	-10.6977
▁раздражает	-10.6978
молодой	-10.6979
▁лишен	-10.6989
выступить	-10.6995
▁конкретны	-10.6996
▁уничтожа	-10.7009
▁тр	-10.7009
▁изгнан	-10.701
ённом	-10.7015
служива	-10.7024
▁полнейши	-10.7027
▁преданны	-10.7039
▁связанны	-10.7046
щая	-10.7048
▁рискованны	-10.7049
▁просыпа	-10.7064
аду	-10.7066
▁вкуса	-10.7066
прям	-10.7067
▁необ	-10.7068
▁показно	-10.707
▁производящ	-10.707
▁вышестоящ	-10.7076
▁запрети	-10.7079
шающий	-10.708
технически	-10.7088
▁отличи	-10.7088
ши	-10.7099
роста	-10.7099
лную	-10.7103
меешь	-10.7105
▁счет	-10.7115
▁физическим	-10.7118
крытие	-10.7122
▁участь	-10.7135
▁христианск	-10.7143
▁окруж	-10.7144
▁нереальн	-10.7152
имыми	-10.7155
альная	-10.7176
▁молоды	-10.7184
▁рассуждения	-10.719
ительного	-10.7192
▁наилучш	-10.7201
▁огромны	-10.7205
▁сто	-10.7208
▁могл	-10.7218
веке	-10.7225
▁устра	-10.7227
они	-10.7233
значителен	-10.7238
▁бол	-10.7241
▁совершени	-10.7241
et	-10.7243
▁несерьезном	-10.725
▁пошл	-10.7252
▁нечестно	-10.7257
обраться	-10.7261
сказать	-10.7264
▁кратковременн	-10.7269
▁услышанном	-10.727
ад	-10.727
▁желт	-10.727
▁шутлив	-10.7272
▁распространяю	-10.7279
▁потер	-10.7286
▁глубок	-10.7286
гла	-10.729
▁достойном	-10.7292
▁иска	-10.7295
▁положительны	-10.7306
▁нравственн	-10.7309
▁жизненно	-10.7309
экономить	-10.731
ице	-10.7341
▁завис	-10.7348
йдет	-10.7351
▁горд	-10.7357
льно	-10.736
▁обучени	-10.7361
▁смелом	-10.7363
ически	-10.7369
▁нему	-10.7373
▁позволя	-10.7375
▁необходимость	-10.7376
▁увер	-10.7384
иш	-10.739
▁привел	-10.7399
всякому	-10.7406
▁плачу	-10.7407
идать	-10.7407
илось	-10.7417
тание	-10.7418
▁являю	-10.7434
▁осуществлени	-10.7435
s	-10.7439
▁заметно	-10.7443
▁заработк	-10.7445
▁выработа	-10.7447
ur	-10.7453
▁быстром	-10.7456
▁дрож	-10.7466
▁вору	-10.7467
▁отрицательн	-10.7475
▁честь	-10.7476
▁выполнени	-10.7483
▁вес	-10.7484
▁отказать	-10.7489
ицы	-10.7492
▁популярны	-10.7494
▁отрыв	-10.7498
вают	-10.7499
▁дорогом	-10.7507
▁(18	-10.751
▁высш	-10.7514
егося	-10.7515
▁раб	-10.7516
▁ребенк	-10.7522
▁открыть	-10.7523
▁облегчи	-10.7525
▁рискованно	-10.7526
▁цен	-10.7529
литься	-10.753
фона	-10.7533
▁старик	-10.7534
▁взаимн	-10.7543
упил	-10.755
▁ярко	-10.755
▁произве	-10.7552
▁сущност	-10.7556
тан	-10.7558
милости	-10.7562
жит	-10.757
▁несуразны	-10.7578
ражения	-10.7579
▁создани	-10.758
▁доказательства	-10.7587
ренном	-10.7592
▁ухудшени	-10.7609
▁кончи	-10.7618
▁полнейше	-10.762
▁прем	-10.7635
▁жи	-10.7635
▁совершен	-10.7636
йдёт	-10.7652
▁желаемы	-10.7654
▁предава	-10.7657
▁выме	-10.7658
▁верне	-10.766
▁неблагоприятны	-10.7684
стоит	-10.7687
▁детски	-10.7701
яют	-10.7702
▁враз	-10.7702
▁любимы	-10.7707
▁достоверн	-10.7714
▁подчин	-10.7714
▁ленин	-10.7719
▁совпад	-10.772
▁пил	-10.7727
▁смотря	-10.7731
▁плох	-10.7741
▁подобн	-10.7749
▁наказан	-10.7759
мся	-10.7764
▁тонк	-10.7766
▁терпени	-10.7772
▁используют	-10.778
▁погруж	-10.7786
▁дорогу	-10.7789
▁жел	-10.7795
▁удач	-10.7797
▁молчаливы	-10.7801
▁сбывш	-10.7802
реб	-10.7805
▁требова	-10.7807
▁бесплодн	-10.7811
ругах	-10.7819
▁подж	-10.7819
▁неизбежност	-10.782
щих	-10.7824
▁оборон	-10.7824
ряды	-10.7825
ска	-10.7848
▁взятк	-10.785
▁верну	-10.7854
▁самостоятельн	-10.7854
▁твёрд	-10.7864
▁употребляем	-10.7868
▁социальн	-10.7871
рах	-10.788
изу	-10.7881
▁старым	-10.7886
▁покорны	-10.7891
▁мнимо	-10.7892
▁безупречн	-10.7893
верное	-10.79
▁удовлетворя	-10.7901
▁надежны	-10.7908
▁несправедлив	-10.791
▁выгодны	-10.7912
▁выбирать	-10.7916
▁нужного	-10.7917
стей	-10.7929
▁ворот	-10.7933
имым	-10.7946
▁194	-10.795
▁неплохо	-10.7967
▁отдели	-10.7973
▁предстояще	-10.7976
чка	-10.7977
▁унижен	-10.7986
▁наделённ	-10.7994
▁прочи	-10.7995
перед	-10.8006
▁неблагоприятн	-10.8007
▁новы	-10.8012
▁влечени	-10.802
▁энергично	-10.8021
▁запис	-10.8023
▁стр	-10.8028
▁прос	-10.8035
вар	-10.8038
▁замет	-10.8043
▁устран	-10.8052
▁сыт	-10.8058
читывать	-10.8059
лам	-10.8063
▁друж	-10.8069
▁приход	-10.8085
▁невозможное	-10.8085
▁намека	-10.81
▁решающи	-10.8105
анным	-10.8111
аемая	-10.8114
on	-10.8115
▁тайну	-10.8128
▁эл	-10.813
▁убийство	-10.8136
▁опрометчив	-10.8141
ваемы	-10.8144
▁соверши	-10.8151
▁неудовлетвор	-10.8155
бр	-10.8159
▁разреш	-10.8166
▁противоречив	-10.819
▁вынужденно	-10.8204
▁креста	-10.8222
▁предлага	-10.8225
▁обязательств	-10.8227
▁закончи	-10.8227
▁разби	-10.8227
▁193	-10.8229
▁индивидуальн	-10.8236
▁неинтересн	-10.824
тель	-10.8243
бой	-10.8247
▁двор	-10.8253
тельно	-10.8255
▁немецк	-10.8257
емуся	-10.8261
▁бран	-10.8264
▁стен	-10.8274
▁улучшит	-10.8277
▁напуга	-10.8296
▁естественно	-10.8299
ден	-10.8306
ись	-10.8309
▁тёпл	-10.832
ческая	-10.833
обы	-10.8337
▁талантливом	-10.8354
▁бросит	-10.8366
ада	-10.8368
чиво	-10.8372
▁мешающ	-10.8406
▁ок	-10.8406
▁доступ	-10.8408
▁мужеств	-10.8415
тельства	-10.8422
отворе	-10.8422
▁неискренни	-10.8424
измен	-10.8427
▁услышанно	-10.8427
ост	-10.8449
ящим	-10.8453
тен	-10.8455
▁невиновн	-10.8469
ально	-10.848
ф	-10.8484
▁иде	-10.8485
▁крайност	-10.8486
▁отв	-10.8492
▁начато	-10.8496
▁шут	-10.8502
становить	-10.8505
▁ла	-10.8506
▁внезапн	-10.8508
▁формальн	-10.8508
ез	-10.8532
▁трудолюбивы	-10.8537
▁предельн	-10.8537
▁чудес	-10.8538
▁неумел	-10.8547
нюю	-10.8554
▁подготови	-10.8557
▁рез	-10.8564
▁вып	-10.8566
веков	-10.8573
▁влад	-10.8577
▁невероятно	-10.8579
▁излиш	-10.8579
▁вышестояще	-10.8588
▁добр	-10.8588
▁вн	-10.8594
▁точ	-10.8594
▁людск	-10.8596
четом	-10.8608
цем	-10.8614
▁раздум	-10.8618
▁броса	-10.862
▁потеряв	-10.8625
▁отрицательны	-10.8626
▁пошло	-10.8631
мирения	-10.8632
▁восхвал	-10.8632
▁рана	-10.8648
плекс	-10.8649
58	-10.8656
▁преуспева	-10.8657
▁мог	-10.8667
▁случаю	-10.8667
▁неразрешимы	-10.8671
▁худшем	-10.8679
▁подобно	-10.868
▁следу	-10.8686
сильно	-10.8696
▁продела	-10.8698
▁наде	-10.8706
it	-10.8711
оват	-10.8714
▁смути	-10.8721
▁суде	-10.8725
▁недолг	-10.8743
▁второ	-10.8746
аживать	-10.876
ствует	-10.8771
▁мелки	-10.8773
▁усто	-10.8774
ащем	-10.8776
▁нескольки	-10.8785
▁гре	-10.8798
ские	-10.8804
▁повин	-10.8818
▁капризн	-10.8824
▁возможны	-10.8825
▁твои	-10.8833
кое	-10.8836
▁максимальн	-10.8848
▁поверхностн	-10.8856
▁нелеп	-10.8857
▁народно	-10.8858
▁появля	-10.8862
▁пристрасти	-10.8876
биться	-10.8878
▁любящи	-10.8879
ика	-10.8882
▁привязанн	-10.8883
▁беспомощн	-10.8891
нимает	-10.8893
ходят	-10.8896
▁пове	-10.8898
нец	-10.8925
▁земно	-10.8928
писанного	-10.8932
▁рассуждени	-10.8934
ющемуся	-10.8943
▁прид	-10.8945
▁коро	-10.8946
ходящий	-10.896
▁значим	-10.8971
▁неудобн	-10.8977
чества	-10.8984
▁неизме	-10.8986
▁щедро	-10.8987
нуться	-10.9005
▁скрыва	-10.9006
учно	-10.902
нием	-10.9026
сходных	-10.9027
▁грозяще	-10.9055
▁умеющи	-10.9059
▁испыта	-10.9062
▁светл	-10.9064
▁факта	-10.9071
▁поход	-10.9082
▁полов	-10.9083
▁уг	-10.9088
▁прис	-10.9118
▁развратн	-10.9119
▁беспро	-10.9121
▁нача	-10.9133
▁побужд	-10.9166
▁видо	-10.917
ик	-10.9171
▁сделает	-10.92
▁предел	-10.9201
▁согнут	-10.9203
▁оплат	-10.9221
далек	-10.9229
▁православн	-10.9244
▁портит	-10.9244
▁армейск	-10.9248
ителей	-10.9257
▁обладающи	-10.9263
▁ше	-10.9274
▁возникающ	-10.9274
▁вмест	-10.9277
ываться	-10.9279
▁обычное	-10.9279
▁серьёзн	-10.9281
▁ист	-10.9282
▁предосудительн	-10.9284
▁нервно	-10.9287
чему	-10.9288
знания	-10.9289
▁неправдоподобно	-10.9292
▁детал	-10.9293
▁замечани	-10.9295
ан	-10.9296
▁сплошн	-10.9296
▁старинны	-10.9297
▁пятн	-10.9302
▁просит	-10.9305
менять	-10.9306
дов	-10.9308
стоящем	-10.9326
▁союз	-10.9329
ющей	-10.9342
▁незначительно	-10.9357
▁полиц	-10.9357
езде	-10.9358
▁упо	-10.9379
▁родно	-10.938
оль	-10.9392
▁заре	-10.9403
чного	-10.9403
нимать	-10.9409
ельности	-10.9413
▁прибега	-10.9414
удить	-10.9417
рный	-10.9421
▁измене	-10.9423
▁критическ	-10.9424
▁наш	-10.9429
▁церковно	-10.9429
ивая	-10.943
▁дожд	-10.9431
▁одежд	-10.9432
▁положительн	-10.9435
рады	-10.944
▁золот	-10.9461
очному	-10.9463
▁энергичн	-10.9468
▁выс	-10.9471
ктуальн	-10.9472
▁взволнова	-10.9477
▁иностранн	-10.9477
кончится	-10.9498
▁латинск	-10.9505
▁опусти	-10.9511
▁обыкновенн	-10.9517
нос	-10.9524
▁лживо	-10.9525
▁загад	-10.9527
дом	-10.9527
бир	-10.953
▁разу	-10.9533
▁ног	-10.9539
▁обращают	-10.9555
ti	-10.9555
чные	-10.9557
▁ис	-10.9559
опытного	-10.9561
ус	-10.9567
▁отста	-10.957
▁множеств	-10.9572
▁некомпетент	-10.9578
▁яс	-10.9578
▁умело	-10.9581
▁делаем	-10.9586
▁ск	-10.959
ени	-10.9591
▁превыша	-10.9599
тр	-10.9599
▁ощуща	-10.9609
▁приятн	-10.9609
опытных	-10.9614
▁благ	-10.9634
льное	-10.9644
▁рассеянн	-10.9646
▁научить	-10.9647
▁древни	-10.9654
▁15	-10.9661
▁зат	-10.9662
тная	-10.9667
▁чь	-10.9667
▁потрясени	-10.9673
▁нестерпимо	-10.9679
▁беспорядочн	-10.9679
▁дешев	-10.9687
▁уста	-10.9689
жней	-10.969
▁сов	-10.9704
▁зажи	-10.9704
▁убор	-10.9706
▁негативн	-10.9708
вания	-10.9727
ист	-10.9732
▁дав	-10.9736
знают	-10.975
▁приня	-10.9754
▁хр	-10.9755
тесь	-10.9757
ительных	-10.9765
кромный	-10.978
какого	-10.978
строить	-10.9781
▁дума	-10.9784
мена	-10.9785
▁соглас	-10.9792
делку	-10.9792
▁ранн	-10.9793
▁бал	-10.9794
▁связ	-10.9802
▁сум	-10.9804
▁обильны	-10.9805
▁каса	-10.9808
пет	-10.9834
▁значимом	-10.9849
▁хитро	-10.9855
няться	-10.9858
нных	-10.9861
▁смышлено	-10.9864
человек	-10.9865
▁обозначен	-10.9872
ис	-10.9872
▁америк	-10.9873
▁неумеренн	-10.9878
бираться	-10.9883
▁проворн	-10.9883
▁хозяйств	-10.9884
имое	-10.9889
▁притвор	-10.9892
еке	-10.9894
▁доставля	-10.9894
▁прекращ	-10.9903
▁центральн	-10.9914
▁расположени	-10.992
▁приглаш	-10.9923
▁культур	-10.9925
▁современно	-10.9926
▁откровенн	-10.9927
ницы	-10.9931
нем	-10.9934
▁осенн	-10.994
▁конц	-10.9943
енном	-10.9946
задачи	-10.9946
▁расстрел	-10.9947
▁заслуживаю	-10.9947
▁отд	-10.9948
▁разно	-10.995
суждать	-10.9951
тных	-10.9956
▁лицемер	-10.9959
▁тщательн	-10.9965
▁соб	-10.9971
▁небольшо	-10.9974
шный	-10.9981
▁жал	-10.9982
▁вели	-10.9987
▁открытом	-10.9998
▁стыдить	-11.0001
чке	-11.0006
ающем	-11.0011
тливым	-11.0013
▁подробно	-11.0014
ачить	-11.0016
деть	-11.0024
▁страда	-11.0025
▁обходи	-11.0026
▁приятны	-11.0035
▁воспитан	-11.0037
▁поверхностно	-11.0038
▁бодро	-11.0044
▁преследовани	-11.0046
ывающая	-11.0054
бо	-11.0055
ством	-11.0056
▁движени	-11.0068
большой	-11.0077
▁духовны	-11.0078
ведом	-11.0081
▁предатель	-11.0089
▁зв	-11.0099
▁волн	-11.0099
▁отдава	-11.0103
▁развлечения	-11.0105
▁прида	-11.011
▁требования	-11.0111
▁возму	-11.0121
выражение	-11.0128
▁погиб	-11.0128
▁непонятны	-11.0145
▁управля	-11.0147
без	-11.0148
просто	-11.0149
▁сбор	-11.015
воды	-11.0151
▁направления	-11.0158
▁развит	-11.0161
▁кав	-11.0163
▁греховно	-11.017
следовательно	-11.0171
▁дис	-11.0174
менить	-11.0187
мент	-11.0187
▁лжи	-11.019
ничего	-11.0193
уя	-11.0196
рав	-11.0199
дра	-11.02
▁держа	-11.0201
▁существовани	-11.0207
▁решен	-11.0231
▁рё	-11.0231
жку	-11.0233
зное	-11.0236
▁призва	-11.0237
▁волнени	-11.0245
телей	-11.0247
очно	-11.025
умному	-11.025
▁порыв	-11.0254
ладить	-11.0258
клонен	-11.0258
все	-11.0277
▁мужчинам	-11.0278
▁неловкост	-11.0281
▁увиденно	-11.0282
▁пуг	-11.0286
призыв	-11.0293
дняя	-11.0294
ир	-11.0301
▁земн	-11.0301
мужа	-11.0304
ви	-11.0306
коле	-11.0313
▁противо	-11.0314
▁неизбежно	-11.0314
чиновники	-11.0315
разному	-11.032
▁крестьян	-11.0325
▁неумелы	-11.0326
кусно	-11.0327
плачет	-11.0327
пустя	-11.0331
▁отдаленны	-11.0337
притвориться	-11.0338
at	-11.0343
часто	-11.0343
тосковать	-11.0345
▁произ	-11.0349
расстреля	-11.0351
охотно	-11.0352
крепко	-11.0352
▁вдал	-11.0353
ящих	-11.0354
эмоционально	-11.0354
чаще	-11.0355
действие	-11.0355
иногда	-11.0357
тихом	-11.0363
тебе	-11.0364
своему	-11.0365
▁сказа	-11.0367
меньше	-11.0368
▁категорическо	-11.0368
тельный	-11.037
▁влюб	-11.037
▁клиент	-11.0374
печат	-11.0375
начале	-11.0378
▁разбирающи	-11.0383
▁абсолютн	-11.0386
волноваться	-11.0389
▁вражд	-11.0392
родился	-11.0395
достоин	-11.0396
стат	-11.0402
▁красот	-11.0402
онуть	-11.0403
▁неизвестн	-11.0403
винно	-11.0405
▁девушк	-11.0407
▁лег	-11.0413
глуп	-11.0418
ведения	-11.0419
▁обед	-11.0421
стает	-11.0421
дели	-11.0422
▁сообразительн	-11.0424
▁флот	-11.0427
▁деятел	-11.0427
орган	-11.0431
▁причаст	-11.0431
верные	-11.0434
▁равновеси	-11.0437
радоваться	-11.0438
▁веру	-11.0443
▁недовольств	-11.0446
током	-11.0449
▁предъяв	-11.0449
чивым	-11.045
▁(1	-11.045
со	-11.0453
▁грани	-11.0456
чистот	-11.0459
▁хозяйстве	-11.046
▁знаком	-11.0463
▁невозмож	-11.047
▁заблуждени	-11.0472
▁лжив	-11.0476
▁ощущени	-11.0477
плачивать	-11.048
▁выставля	-11.0484
крас	-11.049
▁реализ	-11.0495
▁прог	-11.0497
▁рассчитыва	-11.0502
войственн	-11.0502
док	-11.0505
▁отраж	-11.0505
▁вспомина	-11.0511
ол	-11.0516
▁основани	-11.0517
годно	-11.0519
▁контрол	-11.0522
▁обладающ	-11.0522
▁симпати	-11.0523
прашивать	-11.0526
▁нужн	-11.0531
▁матер	-11.0531
▁вспомни	-11.0532
▁обрати	-11.0535
▁происшестви	-11.0536
знакомым	-11.054
▁носит	-11.0541
▁крово	-11.0543
▁приз	-11.0547
▁возьм	-11.0548
▁достав	-11.0549
▁утверждени	-11.055
▁решимост	-11.0551
▁необыкновенно	-11.0552
▁самоуверенно	-11.0552
кажет	-11.0554
▁великобритани	-11.0554
▁сознани	-11.0554
▁роман	-11.0561
▁край	-11.0561
▁разбогате	-11.0563
▁прекрати	-11.0565
▁беспечн	-11.0566
▁тишин	-11.0567
▁промах	-11.0569
звуч	-11.0569
▁ней	-11.0571
▁рус	-11.0571
▁компани	-11.0572
▁безразличи	-11.0574
▁взбалмошно	-11.0575
▁бездельнича	-11.0577
▁презрени	-11.0578
отказ	-11.0579
▁довольны	-11.0579
▁некотор	-11.0581
▁отсутствова	-11.0581
▁затрат	-11.0582
▁несложно	-11.0583
▁воскресен	-11.0585
▁заканчивать	-11.0586
▁противопо	-11.0586
▁получит	-11.0587
▁счастливо	-11.0588
▁дурачить	-11.0588
▁катастроф	-11.0589
спех	-11.059
▁молчи	-11.059
ешить	-11.059
ящей	-11.059
▁измен	-11.059
▁пехот	-11.059
▁характеризу	-11.0591
▁организаци	-11.0592
▁укра	-11.0593
альное	-11.0594
▁невнима	-11.0594
овсюду	-11.0595
▁различно	-11.0595
▁бледн	-11.0596
▁напитк	-11.0596
▁свидетел	-11.0597
▁разъяснит	-11.0597
революцион	-11.0598
▁пасх	-11.0598
▁влюблен	-11.0598
▁граждан	-11.0599
▁непроверенн	-11.0599
провожд	-11.06
стрелить	-11.0601
▁забывает	-11.0601
▁предател	-11.0602
олку	-11.0603
▁хвалить	-11.0603
▁бессмыслиц	-11.0603
▁сдви	-11.0604
▁разорить	-11.0604
▁изнур	-11.0605
▁традици	-11.0606
▁расход	-11.0606
▁ослаб	-11.0606
▁пожалуй	-11.0607
утствие	-11.0607
кращен	-11.0607
▁четырех	-11.0607
регистр	-11.0607
▁безденеж	-11.0607
▁бездуховн	-11.0607
▁бесхарактерн	-11.0607
▁вероломно	-11.0607
▁глобально	-11.0607
▁заворажива	-11.0607
▁затрагива	-11.0607
▁испорченн	-11.0607
▁литератур	-11.0607
▁московск	-11.0607
▁награди	-11.0607
▁неиспользуем	-11.0607
▁ненасытн	-11.0607
▁ожесточ	-11.0607
▁попробова	-11.0607
▁предусматрива	-11.0607
▁прирожд	-11.0607
библия	-11.0607
византийск	-11.0607
исчезн	-11.0607
казнокрад	-11.0607
клеветать	-11.0607
колебимо	-11.0607
начертан	-11.0607
непринужденно	-11.0607
опубликован	-11.0607
ружье	-11.0607
шикарно	-11.0607
▁абзаца	-11.0607
▁административны	-11.0607
▁аркади	-11.0607
▁афиширу	-11.0607
▁безропотно	-11.0607
▁бессонницей	-11.0607
▁бизнес	-11.0607
▁бодрствовани	-11.0607
▁божественн	-11.0607
▁букваря	-11.0607
▁бывалый	-11.0607
▁вдвойне	-11.0607
▁взбучк	-11.0607
▁взглянут	-11.0607
▁вздохнул	-11.0607
▁взросле	-11.0607
▁возоблада	-11.0607
▁возражений	-11.0607
▁восприятие	-11.0607
▁всерьёз	-11.0607
▁выносливый	-11.0607
▁выскочке	-11.0607
▁грамотно	-11.0607
▁демидов	-11.0607
▁демонстриру	-11.0607
▁добросовестно	-11.0607
▁досконально	-11.0607
▁дьявол	-11.0607
▁житейск	-11.0607
▁загрязнен	-11.0607
▁заминки	-11.0607
▁заслуги	-11.0607
▁застрахован	-11.0607
▁затраченны	-11.0607
▁захолустное	-11.0607
▁изворачиваться	-11.0607
▁изможд	-11.0607
▁изнемогать	-11.0607
▁изречени	-11.0607
▁искалечиться	-11.0607
▁исчезнувшем	-11.0607
▁кандидат	-11.0607
▁капитана	-11.0607
▁кодекс	-11.0607
▁колдовство	-11.0607
▁матфея	-11.0607
▁медведи	-11.0607
▁медицинско	-11.0607
▁меньшинств	-11.0607
▁мещански	-11.0607
▁младши	-11.0607
▁морочить	-11.0607
▁награжда	-11.0607
▁назойливым	-11.0607
▁накаплива	-11.0607
▁насекомых	-11.0607
▁насильственным	-11.0607
▁наугад	-11.0607
▁невменяемости	-11.0607
▁невыразительном	-11.0607
▁недобросовестно	-11.0607
▁недоволен	-11.0607
▁незадачливо	-11.0607
▁неисчерпаемы	-11.0607
▁необразован	-11.0607
▁неодушевленно	-11.0607
▁неофициальны	-11.0607
▁неподвижно	-11.0607
▁неподготовленны	-11.0607
▁неподходящим	-11.0607
▁непочтительно	-11.0607
▁неправомерны	-11.0607
▁непредвиденн	-11.0607
▁непроглядная	-11.0607
▁непродуманн	-11.0607
▁неряшлив	-11.0607
▁несостоятельны	-11.0607
▁нетерпением	-11.0607
▁неуклюж	-11.0607
▁неуравновешенн	-11.0607
▁низкопробн	-11.0607
▁нововведени	-11.0607
▁обескуражи	-11.0607
▁обременительн	-11.0607
▁опаздыва	-11.0607
▁оппонент	-11.0607
▁опровергнут	-11.0607
▁организованн	-11.0607
▁освобождени	-11.0607
▁отчаиваться	-11.0607
▁палец	-11.0607
▁первопричина	-11.0607
▁перенапряжени	-11.0607
▁персоне	-11.0607
▁плодородн	-11.0607
▁плюсы	-11.0607
▁побегушках	-11.0607
▁повозка	-11.0607
▁подбоченясь	-11.0607
▁подкреплен	-11.0607
▁подсудим	-11.0607
▁поклясться	-11.0607
▁полюбовно	-11.0607
▁попарился	-11.0607
▁попрекать	-11.0607
▁попрошайнича	-11.0607
▁попутно	-11.0607
▁постыдное	-11.0607
▁преждевременно	-11.0607
▁преследу	-11.0607
▁прикрепл	-11.0607
▁примечательно	-11.0607
▁притупляет	-11.0607
▁провоциру	-11.0607
▁проповед	-11.0607
▁пьянству	-11.0607
▁раболепство	-11.0607
▁работодател	-11.0607
▁равноправны	-11.0607
▁размахнувшись	-11.0607
▁разоблач	-11.0607
▁располага	-11.0607
▁рекомендует	-11.0607
▁реплик	-11.0607
▁самонадеянно	-11.0607
▁самохвальств	-11.0607
▁своевременно	-11.0607
▁священн	-11.0607
▁скоропостижно	-11.0607
▁собственноручно	-11.0607
▁содеянное	-11.0607
▁соревнова	-11.0607
▁сострадание	-11.0607
▁состязани	-11.0607
▁сплоченн	-11.0607
▁тщетно	-11.0607
▁угрозу	-11.0607
▁удержу	-11.0607
▁университет	-11.0607
▁упражнений	-11.0607
▁успокаива	-11.0607
▁утихомерить	-11.0607
▁уяснить	-11.0607
▁фигур	-11.0607
▁христос	-11.0607
▁чистокровный	-11.0607
▁шпионы	-11.0607
▁щекотлив	-11.0607
▁элемент	-11.0607
▁января	-11.0607
уезжает	-11.0607
▁апп	-11.0607
девочка	-11.0607
деревни	-11.0607
епресси	-11.0607
исхуда	-11.0607
побледне	-11.0607
▁анализ	-11.0607
▁безобидн	-11.0607
▁бешенств	-11.0607
▁взвешенн	-11.0607
▁виселиц	-11.0607
▁дельфи	-11.0607
▁деньгах	-11.0607
▁засмеяться	-11.0607
▁крючко	-11.0607
▁лермонтов	-11.0607
▁михаил	-11.0607
▁наличии	-11.0607
▁невежественн	-11.0607
▁непродолжительн	-11.0607
▁паралич	-11.0607
▁плачевно	-11.0607
▁поближе	-11.0607
▁повседневно	-11.0607
▁полушари	-11.0607
▁потрачен	-11.0607
▁предыдуще	-11.0607
▁преисподн	-11.0607
▁псалтыр	-11.0607
▁размолвк	-11.0607
▁расслабля	-11.0607
▁реакци	-11.0607
▁ребёнк	-11.0607
▁розг	-11.0607
▁руководящи	-11.0607
▁сбережения	-11.0607
▁сбивчив	-11.0607
▁скоропалительн	-11.0607
▁слушателя	-11.0607
▁слышит	-11.0607
▁субъект	-11.0607
▁сферы	-11.0607
▁таинственны	-11.0607
▁художник	-11.0607
патии	-11.0607
сопоставим	-11.0607
▁большевиков	-11.0607
▁бродяг	-11.0607
▁впечатления	-11.0607
▁всхлип	-11.0607
▁деревь	-11.0607
▁жёлто	-11.0607
▁заплетающ	-11.0607
▁крепостн	-11.0607
▁неприглядн	-11.0607
▁ослепит	-11.0607
▁пасуще	-11.0607
▁подумай	-11.0607
▁понадобиться	-11.0607
▁самолюби	-11.0607
▁сатана	-11.0607
▁считалки	-11.0607
▁удастся	-11.0607
▁фронт	-11.0607
▁глуповато	-11.0607
▁горбат	-11.0607
▁евангельско	-11.0607
▁исключение	-11.0607
▁население	-11.0607
▁ничегонеделан	-11.0607
▁обнищать	-11.0607
▁одернуть	-11.0607
▁отзыв	-11.0607
▁побеждает	-11.0607
▁повременить	-11.0607
▁принципиальн	-11.0607
▁сапог	-11.0607
▁солнечн	-11.0607
▁сопротивл	-11.0607
▁студен	-11.0607
▁сфере	-11.0607
▁убежал	-11.0607
▁утраченно	-11.0607
▁яйца	-11.0607
хныкать	-11.0607
▁логик	-11.0607
ификаци	-11.0607
поработаешь	-11.0607
▁запущен	-11.0607
▁извинени	-11.0607
▁наконец	-11.0607
▁наутек	-11.0607
▁ненадолго	-11.0607
▁ободрени	-11.0607
▁одиночестве	-11.0607
▁париже	-11.0607
▁слаженно	-11.0607
▁аппетит	-11.0607
▁голуб	-11.0607
▁добродетел	-11.0607
▁досаждать	-11.0607
▁ключев	-11.0607
▁недостоверн	-11.0607
▁опустошен	-11.0607
▁фамили	-11.0607
▁характеристик	-11.0607
▁волосы	-11.0607
▁выезжа	-11.0607
▁отрасл	-11.0607
▁песен	-11.0607
▁пройдох	-11.0607
▁хотите	-11.0607
▁цирк	-11.0607
▁накопления	-11.0607
▁дыхание	-11.0607
▁кухни	-11.0607
▁обманутым	-11.0607
▁вышедш	-11.0607
▁иллюз	-11.0607
▁помылся	-11.0607
▁миленький	-11.0607
▁недостатках	-11.0607
▁высмеива	-11.0607
▁полицейск	-11.0607
▁произойдет	-11.0607
▁тоскливо	-11.0607
▁граб	-11.0607
▁жреби	-11.0607
▁найдешь	-11.0607
▁уточн	-11.0607
▁отдалённо	-11.0607
▁полосы	-11.0607
▁примеси	-11.0607
▁алекс	-11.0608
▁новинк	-11.0608
▁начеку	-11.0608
▁намечалось	-11.0608
▁ругань	-11.0608
▁забудут	-11.0608
становки	-11.0608
▁наследств	-11.0608
▁мечтателе	-11.0608
▁появившемся	-11.0608
▁предвеща	-11.0608
▁истошно	-11.0608
▁отъезд	-11.0608
▁придраться	-11.0608
▁увереннее	-11.0608
▁введен	-11.0608
▁водки	-11.0608
▁исцел	-11.0608
▁насмешливо	-11.0608
▁затишье	-11.0608
▁интеллигенции	-11.0608
▁достаток	-11.0608
▁привередничать	-11.0608
шивания	-11.0608
▁болтун	-11.0608
▁грабеж	-11.0608
▁жилищ	-11.0608
▁изумлении	-11.0608
▁общаешься	-11.0608
▁самодовольн	-11.0608
▁трубк	-11.0608
▁неудовольствие	-11.0608
▁обнародова	-11.0608
▁устройств	-11.0608
▁экспер	-11.0608
аристократическо	-11.0608
книжн	-11.0608
▁успевает	-11.0608
▁настав	-11.0608
лажено	-11.0608
▁нервировать	-11.0608
▁стимул	-11.0608
▁заклинания	-11.0608
▁изношен	-11.0608
▁историческ	-11.0608
▁сложившимся	-11.0608
▁вероучени	-11.0608
▁издевательс	-11.0608
▁красав	-11.0608
▁заурядном	-11.0608
▁бездарны	-11.0608
▁оперением	-11.0608
▁привыкшем	-11.0608
▁наследни	-11.0608
▁повиноваться	-11.0608
▁давление	-11.0608
▁автономно	-11.0608
▁вдвоем	-11.0608
▁попробу	-11.0608
▁численности	-11.0608
▁эксплуатировать	-11.0608
▁мысленно	-11.0608
▁слабину	-11.0608
▁поединок	-11.0608
▁транс	-11.0608
▁нарядно	-11.0608
▁старательно	-11.0608
▁замеша	-11.0608
▁воинам	-11.0608
▁постиг	-11.0608
▁опоры	-11.0608
▁периодически	-11.0608
▁поездке	-11.0608
▁поражаться	-11.0608
▁хочу	-11.0608
▁трога	-11.0608
партнер	-11.0608
▁значащи	-11.0608
▁остановишь	-11.0608
▁слоняться	-11.0608
▁расчувствова	-11.0608
▁блюд	-11.0608
▁рабочие	-11.0608
▁садиться	-11.0608
▁ошибочн	-11.0608
▁путешествии	-11.0608
▁мученичес	-11.0608
▁сирот	-11.0608
▁сохранности	-11.0608
▁(188	-11.0608
▁звук	-11.0608
▁укреплять	-11.0608
▁остатка	-11.0608
▁умён	-11.0608
ёшки	-11.0608
▁греции	-11.0608
▁сложившееся	-11.0608
ушка	-11.0608
▁младен	-11.0608
▁основываясь	-11.0608
▁столкнулся	-11.0609
▁точнее	-11.0609
▁поймут	-11.0609
▁паниковать	-11.0609
▁офисах	-11.0609
▁назначению	-11.0609
▁36	-11.0609
▁выглядящем	-11.0609
▁шахт	-11.0609
▁тракт	-11.0609
хвастался	-11.0609
▁несамо	-11.0609
▁почтительно	-11.0609
▁эффективнее	-11.0609
▁весьма	-11.0609
▁юрист	-11.0609
▁задание	-11.0609
▁поездка	-11.0609
▁ничтожен	-11.0609
▁табак	-11.0609
▁поездки	-11.0609
▁возлюбленн	-11.0609
▁карточ	-11.0609
▁исступление	-11.0609
▁небывалыми	-11.0609
▁придачи	-11.0609
▁взыскат	-11.0609
▁передвигаться	-11.0609
▁выделяющемся	-11.0609
▁пестр	-11.0609
▁колеблясь	-11.0609
▁покинуть	-11.0609
▁постороннего	-11.0609
▁настолько	-11.0609
▁сказках	-11.0609
▁изменчиво	-11.0609
▁ослабеть	-11.0609
▁бегом	-11.0609
профессионально	-11.0609
▁1990	-11.0609
▁удобнее	-11.0609
▁исступления	-11.0609
▁перехитришь	-11.0609
▁благородное	-11.0609
▁месяц	-11.061
▁граничащ	-11.061
▁мошенни	-11.061
▁мастерства	-11.061
▁осторожнее	-11.061
▁простак	-11.061
▁безвольным	-11.061
▁стойкость	-11.061
▁согласию	-11.061
▁унывать	-11.061
▁лгу	-11.061
ированный	-11.061
ооружён	-11.061
▁обожать	-11.061
▁понимающем	-11.061
▁фантазер	-11.061
▁справедливости	-11.061
▁надоедает	-11.061
▁зрел	-11.061
▁молодеж	-11.061
▁изнеженн	-11.061
ирования	-11.061
▁кузн	-11.061
▁облегчения	-11.061
▁глупостей	-11.061
▁обсуждение	-11.061
▁развод	-11.061
▁лгать	-11.0611
▁свойственно	-11.0611
▁произошедшее	-11.0611
▁боялись	-11.0611
▁удачливым	-11.0611
▁183	-11.0611
▁желающих	-11.0611
▁обманщиков	-11.0611
▁жадность	-11.0611
▁оглядк	-11.0611
▁отвращени	-11.0611
▁притворные	-11.0611
фрид	-11.0611
▁безысходности	-11.0611
▁мудростей	-11.0611
▁ритм	-11.0611
текать	-11.0611
▁мечты	-11.0611
▁нерешительности	-11.0611
▁коротким	-11.0611
▁руб	-11.0611
▁путать	-11.0611
▁успевать	-11.0611
▁отдельные	-11.0611
▁происходящего	-11.0611
▁поправить	-11.0611
▁впрок	-11.0611
▁ущемл	-11.0611
▁исполнять	-11.0611
▁назначения	-11.0611
▁мировозрени	-11.0611
▁вырос	-11.0612
▁футболист	-11.0612
подтвержден	-11.0612
▁удрать	-11.0612
ion	-11.0612
▁европе	-11.0612
▁экипажей	-11.0612
▁шар	-11.0612
▁органов	-11.0612
▁наглым	-11.0612
▁льстить	-11.0612
▁неопытному	-11.0612
▁старайся	-11.0612
▁чудом	-11.0612
▁мечтаний	-11.0612
▁образованная	-11.0612
▁сомнева	-11.0612
▁провинность	-11.0612
горий	-11.0612
▁иезуитов	-11.0612
▁длинной	-11.0612
▁думают	-11.0612
▁согреши	-11.0612
▁детях	-11.0613
▁гостях	-11.0613
освещения	-11.0613
▁украд	-11.0613
▁развернуться	-11.0613
публиц	-11.0613
иментальн	-11.0613
▁лишними	-11.0613
▁отличаются	-11.0613
ирование	-11.0613
пересказыва	-11.0613
▁могил	-11.0613
▁рассчитывают	-11.0613
▁неприметного	-11.0613
▁деви	-11.0613
▁женитьбы	-11.0613
▁опасностями	-11.0614
▁желанном	-11.0614
ленда	-11.0614
▁единственным	-11.0614
▁подстраивать	-11.0614
▁свадьбы	-11.0614
▁доверяя	-11.0614
▁лука	-11.0614
▁сигареты	-11.0614
▁благами	-11.0614
▁интелл	-11.0614
▁выстрелить	-11.0614
▁правоту	-11.0614
▁виновен	-11.0614
овцев	-11.0614
▁ствол	-11.0614
▁благородными	-11.0615
▁нормы	-11.0615
▁грустно	-11.0615
сугуб	-11.0615
▁гибель	-11.0615
▁напитков	-11.0615
юэль	-11.0615
▁корабл	-11.0615
▁непроверенные	-11.0615
▁интуи	-11.0615
▁обнаружил	-11.0615
▁молва	-11.0615
▁попечени	-11.0615
▁начальник	-11.0616
▁родины	-11.0616
▁выдержку	-11.0616
▁циничны	-11.0616
▁разгар	-11.0616
▁тело	-11.0616
▁намекнуть	-11.0616
▁прочее	-11.0616
▁разозлиться	-11.0616
▁рассудительно	-11.0616
хажива	-11.0616
▁крыш	-11.0616
▁руководством	-11.0616
▁органы	-11.0616
▁насмешками	-11.0616
▁богатства	-11.0616
▁желуд	-11.0616
▁далее	-11.0616
▁выздоровлени	-11.0617
ere	-11.0617
аз	-11.0617
споткну	-11.0617
▁доплаты	-11.0617
▁пасхальны	-11.0617
▁надейся	-11.0617
▁приукрашива	-11.0617
▁посоветова	-11.0617
▁прижим	-11.0617
▁намерении	-11.0617
▁терновы	-11.0618
▁румяном	-11.0618
▁мелочам	-11.0618
держанным	-11.0618
▁писатель	-11.0618
▁вставая	-11.0618
▁секс	-11.0618
▁использования	-11.0618
▁опасен	-11.0618
▁развиться	-11.0618
мешанном	-11.0618
арист	-11.0618
цию	-11.0619
▁доверчивым	-11.0619
▁терзать	-11.0619
▁участву	-11.0619
тичность	-11.0619
▁чудесное	-11.0619
▁подлежащ	-11.0619
▁навык	-11.0619
▁сообщение	-11.0619
▁завладевши	-11.0619
▁1930	-11.0619
▁совершаемом	-11.0619
▁прошу	-11.0619
▁смелость	-11.0619
▁провин	-11.0619
ворится	-11.0619
▁пороть	-11.0619
▁порицание	-11.0619
▁подчиненных	-11.062
▁пригодится	-11.062
▁удовлетворить	-11.062
▁яркими	-11.062
▁местности	-11.062
▁небылиц	-11.062
▁спится	-11.062
▁бледном	-11.062
▁темпе	-11.062
▁несогласия	-11.062
▁льстиво	-11.062
▁угождать	-11.062
▁закусить	-11.062
▁увеличивает	-11.062
▁негодном	-11.062
▁выплачивае	-11.062
▁объясняют	-11.0621
▁устремлени	-11.0621
▁контролем	-11.0621
▁агрессию	-11.0621
▁изоляцию	-11.0621
▁написано	-11.0621
драма	-11.0621
▁поймет	-11.0621
▁соблазну	-11.0622
▁шаблону	-11.0622
▁травян	-11.0622
▁отдаленное	-11.0622
▁изменение	-11.0622
▁похвалами	-11.0622
▁работников	-11.0622
▁побуждения	-11.0622
▁западн	-11.0622
▁мнениями	-11.0622
итуции	-11.0622
▁слухов	-11.0623
▁желаемом	-11.0623
▁извне	-11.0623
отстраняться	-11.0623
▁трудностей	-11.0623
▁арестовать	-11.0624
▁слышать	-11.0624
▁стоимость	-11.0624
▁ограниченном	-11.0624
▁мнений	-11.0624
▁реальная	-11.0624
▁принесла	-11.0624
▁подавить	-11.0624
▁жалоб	-11.0624
▁строгостью	-11.0624
▁выдаёт	-11.0624
▁безделья	-11.0624
▁болтливый	-11.0625
▁пехоты	-11.0625
▁подъема	-11.0625
▁ночлега	-11.0625
▁кругозора	-11.0625
▁сумятица	-11.0625
▁дисциплина	-11.0625
▁препятствия	-11.0625
▁паник	-11.0625
▁ремн	-11.0625
▁пожелает	-11.0625
▁умол	-11.0625
▁объясниться	-11.0625
▁низов	-11.0625
▁характеризует	-11.0625
▁властей	-11.0625
▁катастрофы	-11.0625
ечённо	-11.0625
▁добивш	-11.0626
▁изобилия	-11.0626
▁подразделения	-11.0626
▁безответственно	-11.0626
▁науку	-11.0626
▁танк	-11.0627
▁животного	-11.0627
плоско	-11.0627
тельному	-11.0627
▁определ	-11.0627
▁дворянского	-11.0627
▁взаимопонимания	-11.0627
▁пушки	-11.0627
▁одежды	-11.0627
▁ветер	-11.0627
▁противники	-11.0628
▁здоровым	-11.0628
▁торопить	-11.0628
ыграть	-11.0628
▁нищет	-11.0628
▁единственная	-11.0628
▁продажа	-11.0628
▁мягким	-11.0628
▁толковать	-11.0628
▁одурачить	-11.0628
▁планов	-11.0628
▁разъяснить	-11.0629
▁познание	-11.0629
▁старания	-11.0629
▁холоп	-11.0629
▁безнадёжном	-11.063
▁жестокостью	-11.063
▁восстанавлива	-11.063
64	-11.063
▁улучшения	-11.063
▁утром	-11.063
▁лёгкого	-11.063
▁полезным	-11.063
гружен	-11.063
▁удобств	-11.0631
▁полёт	-11.0631
▁правдой	-11.0631
▁боязлив	-11.0631
▁документов	-11.0631
▁берет	-11.0631
▁дороже	-11.0631
▁заключения	-11.0631
▁беседу	-11.0631
▁лицемерить	-11.0631
▁приговор	-11.0632
опами	-11.0632
▁хлопотах	-11.0632
▁затрачива	-11.0632
▁приложится	-11.0632
▁несбыточном	-11.0633
▁членов	-11.0633
▁убедительн	-11.0633
▁вкусная	-11.0633
▁худом	-11.0633
▁пожилым	-11.0633
▁угла	-11.0633
▁завиду	-11.0633
шком	-11.0634
▁кривой	-11.0634
▁скуки	-11.0634
▁жестокий	-11.0634
▁безнравственном	-11.0634
▁непрочно	-11.0634
▁бедность	-11.0634
▁ранним	-11.0634
▁пределы	-11.0634
▁обнаруживать	-11.0634
▁материала	-11.0634
▁морозы	-11.0635
▁найму	-11.0635
спасибо	-11.0635
▁упрекать	-11.0635
▁предпочтения	-11.0635
хутор	-11.0636
▁разориться	-11.0636
▁работникам	-11.0636
▁вникая	-11.0636
▁попавшем	-11.0637
▁вслед	-11.0637
▁откровенный	-11.0637
▁стоящей	-11.0637
▁странным	-11.0637
▁неловкая	-11.0637
▁ресурсы	-11.0637
▁просьбами	-11.0637
▁аргументы	-11.0637
▁воплощение	-11.0637
▁расторопн	-11.0637
▁благово	-11.0637
▁бесцен	-11.0638
▁худой	-11.0638
▁терпения	-11.0638
▁гарантии	-11.0639
▁цивилизации	-11.0639
▁сытый	-11.0639
▁задуманно	-11.0639
▁звено	-11.0639
▁безрадостно	-11.0639
▁процессах	-11.064
▁путаться	-11.064
▁мужчиной	-11.064
▁старших	-11.064
▁связей	-11.064
▁природы	-11.064
▁расстройства	-11.064
▁карьер	-11.064
▁будущего	-11.0641
▁голова	-11.0641
▁осторожный	-11.0641
▁негативном	-11.0642
▁уныние	-11.0642
▁хохотать	-11.0642
▁минимальны	-11.0642
▁широким	-11.0642
▁возможных	-11.0642
китай	-11.0642
▁куст	-11.0642
▁невпопад	-11.0643
раздельно	-11.0643
▁велича	-11.0643
▁некачественный	-11.0643
▁надежно	-11.0643
▁мужчину	-11.0643
▁дальнейше	-11.0643
▁затратами	-11.0644
▁потерь	-11.0644
▁предположения	-11.0644
▁стоя	-11.0644
▁неумелая	-11.0644
ьяно	-11.0644
▁послужить	-11.0645
▁изменник	-11.0645
▁гени	-11.0646
▁поручения	-11.0646
▁живым	-11.0646
▁легкомысленному	-11.0646
▁коварном	-11.0646
вшимся	-11.0646
▁разума	-11.0646
▁знающий	-11.0647
▁зануд	-11.0647
▁готовясь	-11.0647
▁развивать	-11.0648
▁победили	-11.0648
▁заочно	-11.0648
▁убирай	-11.0649
▁плете	-11.0649
▁предприятий	-11.0649
▁слушает	-11.0649
▁отвлечённы	-11.0649
▁развлечениях	-11.065
▁предопределена	-11.065
вери	-11.065
истый	-11.065
▁беспечно	-11.065
▁горах	-11.065
▁тесноте	-11.0651
▁невыполним	-11.0651
▁таковой	-11.0651
▁красота	-11.0651
▁трусливым	-11.0651
▁живем	-11.0651
▁продолжить	-11.0651
хват	-11.0652
▁франци	-11.0652
▁предлагать	-11.0652
▁несложном	-11.0653
▁скрытном	-11.0653
▁закончен	-11.0653
▁беременно	-11.0653
▁воспоминаниях	-11.0653
▁вещам	-11.0653
▁просьбы	-11.0653
▁жизне	-11.0654
чика	-11.0654
▁тряс	-11.0654
▁произведений	-11.0654
▁радушн	-11.0654
▁меша	-11.0654
▁романа	-11.0654
▁рент	-11.0655
▁актива	-11.0655
▁доходы	-11.0655
▁мелкая	-11.0655
▁сказке	-11.0656
ицу	-11.0656
▁солдаты	-11.0656
▁предопределено	-11.0656
▁значимым	-11.0656
▁угощении	-11.0657
▁поверь	-11.0657
▁наблюдения	-11.0657
▁бедствий	-11.0657
▁прибыль	-11.0657
▁обвинение	-11.0658
▁воспитания	-11.0658
▁заботиться	-11.0659
▁вызываемы	-11.0659
ической	-11.0659
▁занятия	-11.0659
▁основно	-11.0659
▁порода	-11.066
▁отсутствовать	-11.066
▁достигнуть	-11.0661
▁великобритания	-11.0661
▁размышля	-11.0661
далё	-11.0661
▁довольным	-11.0661
▁потоком	-11.0661
▁вспоминая	-11.0661
ёв	-11.0661
▁обстановки	-11.0661
▁обвиняет	-11.0662
сложн	-11.0662
▁утраты	-11.0663
▁контроля	-11.0663
▁незнанию	-11.0663
▁самостоятельным	-11.0663
▁облегчение	-11.0663
ила	-11.0663
▁несведущи	-11.0663
▁подчеркива	-11.0664
▁чудеса	-11.0664
▁неустойчив	-11.0664
▁скрывать	-11.0664
▁старину	-11.0664
▁исп	-11.0665
▁публик	-11.0666
▁опозданием	-11.0667
выгонять	-11.0667
▁непонимание	-11.0667
▁уловк	-11.0667
▁марша	-11.0668
▁ангел	-11.0668
▁оторванны	-11.0668
▁принуждения	-11.0668
▁насилие	-11.0669
▁истины	-11.0669
▁негодяе	-11.0669
▁виноватым	-11.0669
▁сложным	-11.0669
▁сшит	-11.067
▁возвращаться	-11.067
▁полков	-11.067
▁слепо	-11.067
угостить	-11.067
▁содержания	-11.067
вяз	-11.0671
▁правильным	-11.0671
▁проверить	-11.0671
▁сущности	-11.0671
▁предметах	-11.0671
▁многочисленн	-11.0671
▁отечеству	-11.0671
▁ценится	-11.0671
▁недоразумени	-11.0672
▁происходящему	-11.0673
▁красивому	-11.0673
▁содержани	-11.0673
▁обещанное	-11.0674
щеголя	-11.0674
иплом	-11.0674
▁мужем	-11.0674
▁потерями	-11.0674
▁футболе	-11.0675
▁защититься	-11.0675
▁обув	-11.0676
▁застолье	-11.0676
▁красной	-11.0676
учесть	-11.0676
▁аккуратно	-11.0677
▁сокровенное	-11.0677
▁смятение	-11.0678
▁знакомстве	-11.0678
▁непристойное	-11.0678
▁необъяснимое	-11.0678
▁полезного	-11.0678
▁знаменитый	-11.0678
▁настоящая	-11.0679
▁достигнутого	-11.0679
▁минуты	-11.0679
▁определить	-11.0679
▁происшествий	-11.068
▁грязи	-11.068
утиться	-11.068
▁парти	-11.068
▁занятии	-11.068
▁проблемами	-11.068
▁устали	-11.068
▁небольшого	-11.0681
ватно	-11.0681
▁неопытные	-11.0682
▁сложные	-11.0682
▁притягива	-11.0682
▁дурном	-11.0683
▁фр	-11.0684
▁потрясений	-11.0685
▁дружеские	-11.0685
▁захватчик	-11.0685
▁взаимовыручка	-11.0685
▁опытные	-11.0685
▁понятны	-11.0686
▁варианта	-11.0686
▁вовсю	-11.0687
▁пустым	-11.0687
▁чай	-11.0687
▁вставать	-11.0687
▁переезд	-11.0688
▁герм	-11.0689
▁образные	-11.0689
▁надежды	-11.069
▁даст	-11.069
▁укором	-11.0691
▁помещени	-11.0691
▁опытному	-11.0691
▁инстру	-11.0692
▁возьми	-11.0692
▁разнородн	-11.0692
▁симпатии	-11.0692
▁ложью	-11.0692
▁представитель	-11.0693
▁соображения	-11.0693
ивом	-11.0693
▁богатая	-11.0694
ятки	-11.0694
▁непонятная	-11.0694
▁удивительного	-11.0694
ует	-11.0695
▁воскресение	-11.0695
▁прежним	-11.0695
▁небом	-11.0696
▁ин	-11.0696
▁совмещ	-11.0696
▁раскаива	-11.0696
▁взятки	-11.0696
▁классу	-11.0696
▁правильный	-11.0697
▁жител	-11.0699
▁критику	-11.0699
▁матери	-11.07
▁ругаться	-11.07
▁старики	-11.07
▁ожиданиях	-11.0701
▁скандала	-11.0701
▁судов	-11.0701
▁бар	-11.0701
▁ждал	-11.0701
▁одинакового	-11.0701
▁обидеться	-11.0703
▁слухах	-11.0703
ртного	-11.0703
▁бранить	-11.0703
▁услугу	-11.0704
▁учится	-11.0704
▁рядовы	-11.0704
▁трезвый	-11.0704
жечь	-11.0705
▁условие	-11.0706
▁друзьям	-11.0706
ировки	-11.0706
▁храбрость	-11.0706
▁деятели	-11.0706
▁возвращать	-11.0707
▁ответственное	-11.0707
▁неудачном	-11.0707
▁шуточн	-11.0707
▁неудобствам	-11.0707
▁довольства	-11.0708
▁быстрый	-11.0709
▁толч	-11.0709
▁se	-11.0709
▁улыбка	-11.0709
▁постом	-11.0709
▁отчитать	-11.0709
▁надоевше	-11.071
▁простым	-11.071
нув	-11.0711
▁явление	-11.0711
▁чтение	-11.0711
▁ограничений	-11.0712
▁разниц	-11.0712
▁применения	-11.0712
▁коварны	-11.0712
▁превосходства	-11.0712
▁правила	-11.0714
▁пребывани	-11.0714
▁влияния	-11.0714
▁свершени	-11.0714
▁сор	-11.0715
▁скандальн	-11.0716
▁скрыться	-11.0716
▁уменьш	-11.0716
ление	-11.0717
▁пониманием	-11.0717
▁прятаться	-11.0717
▁хлеба	-11.0717
везение	-11.0718
▁защитить	-11.0718
дующим	-11.0718
▁этап	-11.0719
▁рассматрива	-11.0719
▁персонал	-11.072
▁фамильярно	-11.072
▁заповед	-11.0721
▁луци	-11.0721
чей	-11.0721
▁наблюдени	-11.0721
41	-11.0722
▁реализова	-11.0722
▁букв	-11.0722
▁адресу	-11.0722
▁леса	-11.0722
▁пустяковый	-11.0723
▁выгода	-11.0724
▁эгоист	-11.0724
▁иносказа	-11.0725
▁шагом	-11.0725
▁сдаваться	-11.0726
▁придет	-11.0726
изон	-11.0727
▁метани	-11.0727
▁сумасшедший	-11.0728
▁избит	-11.0729
▁небес	-11.0729
▁стати	-11.073
▁хлопоты	-11.073
▁подаяни	-11.0731
▁волнении	-11.0731
▁зим	-11.0731
▁развитием	-11.0731
▁представляться	-11.0731
▁бдительным	-11.0732
▁свежем	-11.0732
▁обнаруживающе	-11.0733
▁упр	-11.0733
▁ярост	-11.0734
▁предметы	-11.0734
▁представления	-11.0736
▁бескрайн	-11.0738
▁чистая	-11.074
▁покупател	-11.0741
▁повида	-11.0742
▁отбыва	-11.0742
менов	-11.0742
▁героическ	-11.0743
зывающая	-11.0743
пном	-11.0743
▁мотив	-11.0744
▁жалеть	-11.0744
▁потомственны	-11.0745
▁неопределённом	-11.0747
▁ожиданиям	-11.0748
▁очевидц	-11.0749
▁равнодуши	-11.075
▁образования	-11.075
действительность	-11.0751
▁плохая	-11.0751
учился	-11.0752
▁враждебны	-11.0752
▁соображени	-11.0756
имости	-11.0756
25	-11.0756
▁хитрить	-11.0757
▁подчиниться	-11.0757
▁современном	-11.0757
▁дружить	-11.0758
▁имуществом	-11.0758
▁здоровый	-11.076
нился	-11.0761
▁весь	-11.0762
▁тяжёлым	-11.0762
принимает	-11.0762
▁опек	-11.0762
▁октябрьск	-11.0763
▁нелогичное	-11.0763
▁руку	-11.0763
▁добра	-11.0764
▁цена	-11.0764
▁пустяки	-11.0764
▁отходить	-11.0765
игать	-11.0765
▁семья	-11.0765
ровно	-11.0766
▁расчётлив	-11.0767
▁предъявля	-11.0768
ta	-11.0769
▁кончить	-11.0769
ющими	-11.0769
▁приставани	-11.077
▁состава	-11.077
ёр	-11.077
▁билет	-11.0772
▁напоминать	-11.0776
▁министр	-11.0777
▁верхни	-11.0777
еры	-11.0777
▁теме	-11.0778
▁воспринимает	-11.0779
▁нападать	-11.0779
длительностью	-11.0779
▁еже	-11.078
▁повез	-11.078
▁недоверие	-11.0783
▁красоте	-11.0783
мог	-11.0783
▁решавш	-11.0784
ашист	-11.0785
▁стоимост	-11.0786
разумевающегося	-11.0786
▁погибше	-11.0786
опытнее	-11.0787
▁рамк	-11.0788
▁содержание	-11.0788
внимательным	-11.079
▁исходом	-11.079
▁морск	-11.0791
иллер	-11.0791
▁духу	-11.0791
▁улыбнут	-11.0792
▁сочувстви	-11.0792
ьевич	-11.0793
▁потребност	-11.0793
▁формиру	-11.0793
алим	-11.0793
▁дур	-11.0794
▁поискать	-11.0794
▁скид	-11.0794
▁флоте	-11.0795
▁штан	-11.0796
▁незначительные	-11.0796
▁промок	-11.0796
▁исполнител	-11.0797
▁гостеприимством	-11.0797
▁облик	-11.0797
▁молодом	-11.0798
▁потеряет	-11.0798
обоснованными	-11.0798
▁живши	-11.0799
▁долю	-11.0803
▁выну	-11.0803
▁рассм	-11.0804
▁готовый	-11.0804
ошел	-11.0805
▁no	-11.0805
▁достоин	-11.0807
▁выше	-11.0808
олюбив	-11.0808
▁расплат	-11.0809
сная	-11.0809
воровать	-11.081
▁чувствами	-11.081
▁органам	-11.081
▁приеме	-11.081
лемы	-11.0811
▁загр	-11.0811
▁исключительно	-11.0813
▁звуч	-11.0814
▁провод	-11.0815
▁доверчивость	-11.0815
▁нормам	-11.0815
▁миг	-11.0816
▁сплет	-11.0817
▁треть	-11.0818
▁подчинённы	-11.0819
ударять	-11.0819
▁насильно	-11.0823
почитает	-11.0824
▁работает	-11.0824
▁грешник	-11.0825
исто	-11.0826
▁старши	-11.0826
▁вложения	-11.0827
▁энергии	-11.0827
▁страшного	-11.0827
▁тяжелая	-11.0828
▁поколени	-11.0828
льце	-11.0829
▁обстоятель	-11.0831
▁нестабильность	-11.0831
▁ничто	-11.0832
▁лицемерны	-11.0834
▁проник	-11.0835
▁задумыва	-11.0836
▁взгляду	-11.0836
▁грубая	-11.0837
atri	-11.0838
▁царя	-11.0839
▁возвы	-11.0839
▁произвол	-11.084
роков	-11.084
▁хозяина	-11.084
▁кук	-11.0841
▁противоположное	-11.0843
▁стад	-11.0843
▁известий	-11.0844
имущества	-11.0844
клиентов	-11.0846
▁врет	-11.0846
▁еду	-11.0846
▁разбойни	-11.0847
▁религиозн	-11.0848
▁защитой	-11.0849
крат	-11.085
▁обоснов	-11.085
прорвать	-11.085
▁обычн	-11.0851
▁толковани	-11.0852
▁складно	-11.0853
▁подража	-11.0857
▁впереди	-11.0857
аяс	-11.0858
▁итак	-11.0858
▁недовольны	-11.0858
▁велики	-11.086
▁инвестора	-11.086
▁запутанном	-11.086
▁приятном	-11.086
▁решено	-11.086
▁обязанности	-11.0861
▁жертву	-11.0861
ажи	-11.0862
▁огромн	-11.0864
▁бесчести	-11.0864
▁взаимоотношения	-11.0866
▁март	-11.0869
▁охотно	-11.0869
▁настаива	-11.0869
▁обозначение	-11.0872
▁недружелюби	-11.0872
▁единственн	-11.0872
▁налогов	-11.0873
▁разговорах	-11.0875
▁средствах	-11.0877
▁тосковать	-11.0877
форм	-11.0877
▁получен	-11.0879
▁пойманн	-11.0881
▁сопровождаем	-11.0882
▁обмене	-11.0885
▁атаки	-11.0886
▁покаяни	-11.0886
▁доказыва	-11.0888
▁зависящи	-11.0888
личными	-11.0889
▁родное	-11.089
▁вз	-11.0892
▁наглом	-11.0895
сомнен	-11.0895
овой	-11.0897
▁крестьянск	-11.0898
▁богатой	-11.0898
одобрительно	-11.0898
▁некачественно	-11.0899
▁двигатель	-11.0899
▁средству	-11.0899
▁поправиться	-11.0899
▁неба	-11.09
▁неведении	-11.09
▁предмета	-11.09
▁добива	-11.0901
▁платить	-11.0902
▁добьё	-11.0904
▁гар	-11.0904
▁навредил	-11.0906
ъёма	-11.0906
▁обстоятельством	-11.0907
▁нико	-11.0912
▁выгодное	-11.0913
▁исправления	-11.0914
▁управлени	-11.0914
бытие	-11.0914
▁дореволюционно	-11.0914
▁слову	-11.0915
▁затр	-11.0916
▁дава	-11.0917
▁действующи	-11.0917
мый	-11.0918
▁столкновение	-11.0919
▁плачет	-11.0919
▁выигрыше	-11.0919
▁берег	-11.0919
▁озн	-11.0921
тяж	-11.0921
▁отвед	-11.0924
▁неис	-11.0924
▁слабой	-11.0924
▁виды	-11.0925
▁забав	-11.0925
▁исполн	-11.0928
▁георгиевским	-11.093
▁доставляюще	-11.0932
▁крах	-11.0933
▁кротком	-11.0933
▁стру	-11.0935
▁худше	-11.0937
▁винов	-11.0937
▁чиновники	-11.0939
▁огн	-11.0939
считать	-11.094
толковый	-11.0941
крест	-11.0943
▁непонятном	-11.0944
уби	-11.0947
▁риска	-11.0949
изогнут	-11.0951
▁смущать	-11.0951
▁эго	-11.0952
▁серьезный	-11.0952
▁опытом	-11.0953
▁действием	-11.0954
▁похода	-11.0954
▁речью	-11.0954
стаёт	-11.0956
серьёзными	-11.0956
▁обязывающ	-11.0957
▁насла	-11.0957
▁(3	-11.0959
▁мечтать	-11.0961
▁одинаковые	-11.0963
▁ошибся	-11.0964
▁восторженн	-11.0964
сить	-11.0968
▁страданиях	-11.0971
▁попали	-11.0973
▁морско	-11.0975
ур	-11.098
▁миру	-11.0981
рывами	-11.0982
▁угощать	-11.0982
анное	-11.0984
страхов	-11.0985
6	-11.099
▁очевидной	-11.0991
▁гоме	-11.0994
▁неуместное	-11.0994
спокойнее	-11.0995
▁отрица	-11.0996
▁женщинах	-11.0996
плотн	-11.0998
▁ник	-11.0999
боле	-11.0999
▁промежутк	-11.0999
▁глупому	-11.1005
▁шума	-11.1006
▁печаль	-11.1006
▁путан	-11.1007
ющегося	-11.1007
▁супружеск	-11.1007
▁доступным	-11.1008
▁поз	-11.1008
▁последствиями	-11.1008
▁сложност	-11.1015
▁шапк	-11.1016
▁разному	-11.1017
▁сегодняшним	-11.1018
▁настроен	-11.102
ложения	-11.1022
длинный	-11.1024
соедин	-11.1025
▁богач	-11.1026
▁r	-11.1028
▁позволяющи	-11.1031
быть	-11.1032
брасыва	-11.1033
▁предопределен	-11.1033
▁существенн	-11.1035
ёвом	-11.1036
▁приспособить	-11.1038
▁сюда	-11.1039
▁обстоятельство	-11.1044
▁хлебе	-11.1046
▁впро	-11.1047
ды	-11.1049
▁рынк	-11.1049
▁лишени	-11.1057
▁покупк	-11.1059
есть	-11.106
▁звен	-11.1061
▁ведом	-11.1061
▁посыла	-11.1064
▁работ	-11.1064
арий	-11.1065
чая	-11.1067
ёрт	-11.1067
вернуть	-11.1069
отаж	-11.1074
▁шаги	-11.1075
▁заступ	-11.1077
▁ю	-11.1077
▁широкоизвестн	-11.1078
▁присутствующ	-11.1078
являют	-11.108
последовательном	-11.1081
▁сниж	-11.1081
▁тоску	-11.1081
▁начальство	-11.1081
колотить	-11.1082
▁столиц	-11.1083
▁пределе	-11.1083
▁приветствова	-11.1087
▁тяжки	-11.1087
▁непросто	-11.1087
▁внимательным	-11.1088
ываясь	-11.109
▁бессмысленном	-11.1092
▁мона	-11.1094
▁вол	-11.1097
▁прославить	-11.1097
▁удаче	-11.1098
▁складыва	-11.1099
▁арт	-11.11
▁горестя	-11.1101
ьяк	-11.1103
▁праздновани	-11.1103
▁насмешк	-11.1104
▁мелко	-11.1107
▁стеснени	-11.1115
▁ругают	-11.1119
▁тайне	-11.1123
▁масл	-11.1123
важный	-11.1128
▁родин	-11.113
▁прощальн	-11.113
▁лу	-11.1134
▁схожим	-11.1135
ённое	-11.1142
станц	-11.1148
▁экономик	-11.115
▁обозначающе	-11.1152
181	-11.1152
теж	-11.1153
▁неприязнь	-11.1153
▁воспитани	-11.1157
бора	-11.1157
▁взволнован	-11.1159
смешная	-11.1163
▁улика	-11.1164
вых	-11.1164
сто	-11.1166
матери	-11.1167
▁большинстве	-11.1167
▁перехитри	-11.1168
▁домашн	-11.1169
▁неудаче	-11.1171
▁наступить	-11.1175
аяния	-11.1177
▁трусливы	-11.118
▁бодр	-11.1188
теснения	-11.119
ерте	-11.119
лами	-11.1197
▁бесстыдно	-11.1197
▁ударе	-11.1198
▁продума	-11.1199
▁выдумк	-11.1201
▁преследования	-11.1201
▁внешни	-11.1202
▁сказали	-11.1205
▁цене	-11.1209
▁беспокойно	-11.121
▁бесед	-11.1211
▁рыда	-11.1214
▁нравиться	-11.1216
▁пьяны	-11.122
▁осуществи	-11.1224
▁пут	-11.1225
▁озадаченност	-11.1225
▁июн	-11.1229
▁добивают	-11.123
▁имеющие	-11.123
▁качественное	-11.1233
хорошего	-11.1234
▁поте	-11.1239
▁десят	-11.1239
зей	-11.1243
▁обеспечени	-11.1243
▁красива	-11.1244
▁несчаст	-11.125
▁незаконн	-11.1257
иск	-11.1257
▁понимаем	-11.1263
▁умерше	-11.1263
комфорта	-11.1263
▁разрыва	-11.1263
▁труду	-11.1263
зна	-11.1264
▁увиденн	-11.1271
аюсь	-11.1273
ав	-11.1277
▁небе	-11.1278
▁заключа	-11.1281
▁прояви	-11.1281
требуют	-11.1284
▁мет	-11.1288
еять	-11.1298
▁например	-11.1298
арат	-11.1298
ницам	-11.1304
▁среду	-11.1305
▁собач	-11.1307
▁возмущ	-11.1308
ество	-11.1308
приветливо	-11.1309
▁пищ	-11.1309
▁говори	-11.1316
▁голов	-11.1324
орож	-11.1325
▁увлечени	-11.133
▁ворон	-11.133
догнать	-11.1331
▁раская	-11.1332
▁выступающе	-11.1332
▁t	-11.1337
едить	-11.1343
▁спокойной	-11.1343
▁пы	-11.1344
▁вытека	-11.1347
▁грехов	-11.1348
▁использовал	-11.135
▁обижа	-11.1352
▁наз	-11.1352
ut	-11.1352
▁невозможного	-11.1354
▁человечеств	-11.1354
▁красивое	-11.1357
тка	-11.1362
▁умыс	-11.1363
равнива	-11.1368
влиятельном	-11.1368
▁беспокойны	-11.1375
▁жалко	-11.1379
▁устаревши	-11.1383
▁подда	-11.1384
▁мих	-11.1385
▁пережива	-11.1387
сме	-11.1392
▁непрост	-11.1393
▁измучил	-11.1395
▁правильном	-11.1398
▁непостоянном	-11.1398
рать	-11.14
▁неумеренно	-11.1402
▁остроуми	-11.1403
▁поступ	-11.1403
▁придирк	-11.1406
▁роскошно	-11.1407
смышленого	-11.1409
▁прошлой	-11.1411
▁пло	-11.1412
правлениях	-11.1418
ироническая	-11.1427
обрать	-11.1431
▁изображ	-11.1434
")	-11.1437
прежнему	-11.144
лян	-11.1443
асаясь	-11.1443
рации	-11.1443
спавшись	-11.1444
▁хил	-11.1449
▁детств	-11.1449
замуж	-11.1452
▁выражая	-11.1454
99	-11.1458
▁утомительном	-11.1459
тяжесть	-11.1461
▁исто	-11.1463
▁пропада	-11.1469
многослов	-11.1471
▁увлечь	-11.1474
▁кл	-11.1475
▁рекламны	-11.1476
▁кротки	-11.148
озд	-11.1481
пробуд	-11.1483
близи	-11.1488
пер	-11.1492
▁служени	-11.1495
▁горде	-11.1499
▁очевидное	-11.1508
▁вооруженно	-11.1508
▁поручени	-11.1508
стандартно	-11.1518
стигнуть	-11.1522
кончиться	-11.1523
▁еде	-11.1526
▁увиде	-11.1534
▁безделье	-11.1537
кать	-11.1539
▁тра	-11.1539
▁культурно	-11.1545
▁недооценил	-11.1546
▁процессе	-11.1548
ившее	-11.1549
зм	-11.1554
▁заработанн	-11.1554
▁ранены	-11.1557
▁приносящ	-11.1558
ильное	-11.1558
▁жул	-11.156
расчетливо	-11.1562
▁лож	-11.1564
жной	-11.1564
нностями	-11.1567
цов	-11.1569
▁лучшем	-11.1572
чёт	-11.1581
вор	-11.1587
▁получившем	-11.1589
хватиться	-11.159
▁притворя	-11.1593
▁правильны	-11.1597
▁противоположным	-11.1598
▁горящи	-11.1603
▁ожидани	-11.1608
вражду	-11.1611
▁прибег	-11.1614
▁интересующ	-11.1615
▁ирони	-11.1623
ееся	-11.1623
шать	-11.1626
рат	-11.1627
▁заме	-11.1628
ал	-11.1628
дейс	-11.1631
▁уборк	-11.1634
лаг	-11.1635
тной	-11.1638
▁свобод	-11.1638
▁неизвестном	-11.164
дела	-11.1643
служении	-11.1648
▁успоко	-11.1648
пы	-11.1655
▁реш	-11.1656
тревожиться	-11.1662
▁высо	-11.1667
▁небо	-11.1673
интересованность	-11.1674
кончаться	-11.1677
▁мужско	-11.1683
▁утомл	-11.1687
▁поздн	-11.1688
▁наступ	-11.1701
▁повышенно	-11.1706
обности	-11.1717
▁кап	-11.172
спорно	-11.1732
тихая	-11.1735
▁талантливым	-11.1735
▁проигрыва	-11.1743
итесь	-11.1748
▁мудре	-11.175
▁препятствие	-11.1751
ляет	-11.1752
▁представителя	-11.1755
▁предупрежд	-11.1759
иним	-11.1761
▁предупредит	-11.1761
▁простом	-11.1763
▁военн	-11.1764
▁имевши	-11.1764
бны	-11.1764
▁всевозможны	-11.1765
ог	-11.177
ень	-11.1772
говориться	-11.1774
▁кру	-11.1785
▁духе	-11.1787
▁торопит	-11.1791
жа	-11.1801
▁четк	-11.1802
пакости	-11.1804
▁причиняющ	-11.1814
поведению	-11.1822
▁поправи	-11.1823
▁попытка	-11.1825
ержимым	-11.1826
▁обыкновен	-11.1826
▁участникам	-11.1834
лен	-11.1842
сил	-11.1843
становления	-11.1843
ведет	-11.1843
▁трусливом	-11.1848
▁одинок	-11.1849
▁вызывающи	-11.1849
▁жесток	-11.1854
ирован	-11.1856
▁безнравственны	-11.1857
▁прорывать	-11.1858
овывать	-11.1858
▁склон	-11.1859
зумиться	-11.1859
▁свято	-11.1866
▁старше	-11.1867
▁бесплотност	-11.1868
▁нар	-11.1874
▁образовани	-11.1883
ож	-11.189
▁соглашени	-11.189
▁главны	-11.1897
▁мыслить	-11.1905
иняк	-11.1911
енность	-11.1911
▁коварно	-11.1912
заметный	-11.1915
▁свод	-11.1915
▁наделён	-11.1916
▁расположить	-11.1919
▁неурожа	-11.1924
▁неисправимы	-11.1934
▁непосед	-11.1941
▁виновн	-11.1941
▁болта	-11.1942
▁размышлени	-11.1946
▁конкретн	-11.1958
▁воображени	-11.1959
▁ада	-11.196
▁комментир	-11.1961
▁критически	-11.1962
▁дураке	-11.1972
▁торжественн	-11.1973
▁неистовство	-11.1979
▁настойчивы	-11.1983
▁вежливо	-11.1985
▁непрерывн	-11.1988
бирать	-11.1997
▁пресс	-11.1997
дь	-11.1999
▁явн	-11.1999
▁немц	-11.2006
▁нак	-11.2006
n	-11.2015
▁верх	-11.2016
▁вника	-11.2021
▁закат	-11.2023
уговорить	-11.2028
▁играюще	-11.2036
дания	-11.2037
▁обозр	-11.2038
▁разруш	-11.204
▁удовлетворени	-11.2043
▁возможное	-11.205
▁гладки	-11.205
▁рождает	-11.2055
▁пря	-11.2056
се	-11.2056
▁умершем	-11.2057
ании	-11.2062
ающие	-11.2077
еди	-11.2086
▁робки	-11.2088
▁чест	-11.209
▁расчета	-11.2091
▁ненадёжн	-11.2099
ствующе	-11.2101
▁продуман	-11.2103
тавшем	-11.2104
▁уклад	-11.2109
▁сплош	-11.2112
разумн	-11.2116
▁сомнительн	-11.2118
шутить	-11.212
уз	-11.2125
щим	-11.2127
тельн	-11.2128
яется	-11.2128
волие	-11.2129
▁денежны	-11.213
ошло	-11.2132
▁пустяков	-11.2134
▁ненадёжном	-11.2144
▁официальн	-11.2145
▁сомнение	-11.2147
▁темнот	-11.2149
ду	-11.2156
▁оценка	-11.2156
▁жажд	-11.2157
надежным	-11.2172
▁186	-11.2172
ечении	-11.2173
иль	-11.2175
▁неу	-11.2176
▁мае	-11.2196
▁союзн	-11.22
будет	-11.2228
▁примени	-11.2237
▁характере	-11.2238
тов	-11.2245
▁очерн	-11.2245
думаться	-11.2249
трезв	-11.2256
▁отстающ	-11.2257
▁рассудоч	-11.2261
слушиваться	-11.2264
▁провер	-11.2266
▁повторени	-11.2267
ция	-11.2269
ага	-11.2276
стрый	-11.2279
▁благородны	-11.228
▁казачь	-11.2283
▁уголо	-11.2286
готовленный	-11.2286
рже	-11.2289
остижимом	-11.229
▁бело	-11.2295
замеченным	-11.2295
▁рискованн	-11.2296
▁уезд	-11.2297
▁пост	-11.2298
▁досаде	-11.2298
▁успехе	-11.2299
non	-11.2299
▁заработ	-11.2301
▁знающи	-11.2302
▁разврат	-11.2303
фил	-11.2303
▁доста	-11.2303
▁чувствительно	-11.2306
делаешь	-11.2307
▁предусмотр	-11.2309
▁сущ	-11.2314
духе	-11.233
▁ленив	-11.2336
чаянно	-11.2344
▁объедин	-11.2347
▁муч	-11.2362
▁ана	-11.2371
ву	-11.2374
▁долгом	-11.2375
ходов	-11.2378
▁реагир	-11.2378
▁приклад	-11.2386
▁жадном	-11.2386
▁неприличны	-11.239
▁жур	-11.2394
▁мерам	-11.2396
▁покой	-11.2397
▁понима	-11.2398
▁утеша	-11.2409
▁имя	-11.2409
зывает	-11.2409
тере	-11.241
▁негативны	-11.241
▁ос	-11.2418
▁мар	-11.2419
▁довольств	-11.2425
▁надёжно	-11.2429
▁испорти	-11.2434
▁совест	-11.2444
▁недовольством	-11.2445
▁объединяет	-11.2448
▁суеверн	-11.245
▁небольш	-11.2452
▁чрезмерны	-11.2452
▁потрясение	-11.2453
▁предназначенны	-11.2453
купить	-11.2454
связно	-11.2464
▁мод	-11.2466
▁лживы	-11.247
▁грязны	-11.247
▁охватыва	-11.2473
ергая	-11.2474
▁гл	-11.2486
▁дружны	-11.2486
овая	-11.2495
грам	-11.2498
▁сумер	-11.2502
▁южны	-11.2503
вшим	-11.251
▁количеств	-11.2513
▁радует	-11.2524
▁эпи	-11.2526
платить	-11.2527
▁нака	-11.253
▁щедр	-11.2531
▁раскрыть	-11.2535
осмотрительно	-11.2536
▁бессмысленным	-11.2542
▁родственн	-11.2543
дающие	-11.2544
▁поступк	-11.2555
щите	-11.2559
▁мире	-11.256
▁бессмысленны	-11.2561
▁прием	-11.2565
▁смертельны	-11.2569
дя	-11.2573
нтичных	-11.2585
▁забыва	-11.2593
▁нагле	-11.2608
ельное	-11.2611
производстве	-11.2616
снуть	-11.2627
деятельности	-11.2627
▁обязательн	-11.2628
▁случайны	-11.2628
▁почест	-11.2629
▁приближ	-11.2631
тор	-11.2636
думыванию	-11.2637
▁рай	-11.2638
▁таков	-11.2642
▁дво	-11.2651
блок	-11.2652
верять	-11.2658
▁именин	-11.2661
поменять	-11.2666
▁покупа	-11.2668
тро	-11.2668
▁беспомощно	-11.2668
станавливать	-11.2677
▁убеждениям	-11.2679
▁привязанност	-11.268
▁пострада	-11.268
частливо	-11.2685
▁человеческо	-11.2689
▁пристрастие	-11.269
▁повтор	-11.27
▁написанн	-11.2704
▁испортит	-11.2708
▁остальн	-11.2712
▁комп	-11.2713
▁сложностя	-11.2727
ant	-11.273
встретиться	-11.273
ала	-11.2732
▁неожиданны	-11.2733
▁шахмат	-11.2736
хий	-11.2738
▁творчески	-11.2741
▁государствен	-11.2742
зе	-11.2745
▁смешны	-11.2745
говаривать	-11.2746
рев	-11.2747
нович	-11.2748
▁поня	-11.2752
▁несуразно	-11.2758
▁капризно	-11.2765
енному	-11.277
сечь	-11.2773
▁умеюще	-11.2775
▁происходящ	-11.2776
▁влюбленн	-11.2787
▁религиозны	-11.2791
▁од	-11.2791
▁особым	-11.2793
▁ищ	-11.2796
зн	-11.2796
слушиваясь	-11.2807
▁заня	-11.2808
истически	-11.2812
живает	-11.2813
▁песн	-11.2816
позорить	-11.2819
▁грешн	-11.282
▁видимы	-11.2825
▁являюще	-11.2831
▁успешном	-11.2835
страдать	-11.2838
▁бра	-11.2851
▁заверш	-11.2859
▁соляно	-11.2866
▁беспо	-11.2872
▁уличи	-11.2875
▁морально	-11.2887
▁морд	-11.2887
выгодном	-11.2889
▁утрата	-11.2894
жат	-11.2899
▁сбы	-11.2901
▁невероятн	-11.2904
▁обре	-11.2907
▁похоронн	-11.2915
▁приятеле	-11.2926
ениями	-11.2926
▁выпи	-11.2932
▁пусты	-11.2935
ечный	-11.2945
▁имеющих	-11.2948
важного	-11.2954
нее	-11.2961
привычно	-11.2964
являться	-11.2965
полномочи	-11.2965
сознание	-11.297
▁наказани	-11.2973
▁дурно	-11.2974
▁сел	-11.2982
▁уступк	-11.2991
▁неразрешим	-11.2994
▁преуспев	-11.3016
ова	-11.3018
двое	-11.3018
▁ло	-11.3024
▁бурн	-11.3028
умный	-11.3034
▁старани	-11.3038
▁скверн	-11.3043
▁щи	-11.3048
▁ошелом	-11.3052
▁хитрост	-11.3054
ян	-11.3058
определения	-11.306
фон	-11.3068
▁распоряжени	-11.3073
▁обманываю	-11.3073
▁смут	-11.3074
▁решающе	-11.3081
пить	-11.3084
▁запутанны	-11.3085
виновным	-11.3087
каких	-11.3092
▁оп	-11.3098
ины	-11.3099
▁предполагаю	-11.3107
▁капитал	-11.3107
▁опыте	-11.3109
утый	-11.3109
▁обреченно	-11.3112
▁скупом	-11.3113
▁чудесн	-11.3116
ообразительности	-11.3122
▁несо	-11.3129
▁выбран	-11.3152
даваться	-11.3159
▁предательско	-11.3163
ословить	-11.3164
ельс	-11.3175
делить	-11.3175
▁скорость	-11.3177
вам	-11.3179
ценным	-11.318
▁бедн	-11.3184
▁протест	-11.3192
знаваем	-11.3193
тях	-11.3214
▁покуша	-11.3216
▁состоявш	-11.3218
▁повинн	-11.3218
▁раздв	-11.3222
▁трудолюбив	-11.3222
▁наслажд	-11.3232
вую	-11.3238
ватым	-11.3261
tt	-11.3278
▁сл	-11.329
▁сложивше	-11.3291
иция	-11.3292
▁грубы	-11.3292
▁торжеств	-11.3294
▁стесня	-11.3295
вольном	-11.3301
меняется	-11.3306
онож	-11.3306
▁идио	-11.3309
пения	-11.3311
▁блаженн	-11.3312
ывают	-11.3332
▁широки	-11.3333
мыми	-11.3339
емся	-11.334
▁полноценн	-11.3342
ста	-11.3354
ическая	-11.3366
▁довери	-11.3372
лыми	-11.3374
▁смысле	-11.3377
был	-11.3377
▁точк	-11.338
▁нежелательно	-11.3382
▁ненавистн	-11.3382
▁предоставит	-11.3397
▁слабы	-11.3401
щаясь	-11.3407
68	-11.341
▁рече	-11.3411
▁маленьки	-11.3419
▁тай	-11.3421
▁вызывающ	-11.3429
благополучного	-11.343
▁сопровожда	-11.3434
▁приспособлен	-11.3434
▁относи	-11.3441
дит	-11.3444
▁категорич	-11.3451
▁зав	-11.3451
▁установ	-11.3473
полезное	-11.3473
▁сказочно	-11.3475
▁крепки	-11.3476
▁чёрно	-11.3478
▁получат	-11.3479
▁неправдоподобн	-11.3484
ием	-11.3484
▁новым	-11.3485
▁подоб	-11.3485
любо	-11.3491
▁зарабатыва	-11.3498
▁отк	-11.3498
▁виновато	-11.35
▁напугал	-11.3503
анони	-11.352
▁терпелив	-11.352
вшейся	-11.3527
▁строги	-11.3543
як	-11.3559
▁полез	-11.356
▁собо	-11.3561
овки	-11.3565
▁могущи	-11.3568
▁арестов	-11.3568
лка	-11.357
умелым	-11.3572
▁беспоко	-11.3575
▁нуждам	-11.3579
рог	-11.3592
▁освободи	-11.3605
▁демонстра	-11.3606
▁позорно	-11.3609
▁влиятельн	-11.3609
▁обещанно	-11.3609
▁подслушива	-11.3611
▁превыш	-11.3616
словно	-11.3628
▁выпро	-11.3629
▁добь	-11.3631
кая	-11.3631
▁жеман	-11.3637
▁появил	-11.364
▁разграничи	-11.3642
▁покида	-11.3645
▁повода	-11.3652
▁немецко	-11.3657
мирный	-11.3662
влечение	-11.3682
▁эст	-11.3684
частным	-11.3689
▁неос	-11.369
знанием	-11.3692
▁поспешность	-11.3696
▁недобро	-11.3697
▁отчет	-11.37
описани	-11.3704
▁совместны	-11.3716
ивным	-11.3718
▁безграмотно	-11.3721
тем	-11.3727
▁скрывает	-11.373
▁раздражающе	-11.3732
▁достигне	-11.3748
▁размера	-11.3752
▁естественн	-11.3752
▁ответе	-11.3758
▁противоположны	-11.3762
виновный	-11.3766
0-	-11.3781
ородный	-11.3781
▁обязательства	-11.3781
ья	-11.3782
▁поверхност	-11.3783
серьёзно	-11.379
▁возвратить	-11.3793
поминай	-11.3794
▁недостойн	-11.3796
умения	-11.3798
▁образован	-11.3815
▁подходящи	-11.3815
▁эс	-11.3817
иками	-11.382
▁обр	-11.3827
▁миров	-11.3831
▁красн	-11.3835
▁верно	-11.385
▁опрометчивы	-11.3856
чку	-11.3857
▁вернё	-11.3863
▁разор	-11.387
▁переживани	-11.3871
остепенное	-11.3883
городить	-11.3885
ившем	-11.3888
▁странн	-11.3888
▁торжество	-11.3892
ары	-11.3908
▁перево	-11.3917
▁получают	-11.3925
рительно	-11.3927
▁обусловленн	-11.3931
▁вспыльчивы	-11.3948
▁типичны	-11.3957
▁переживание	-11.3961
лагать	-11.397
▁боязн	-11.3977
▁раскрыва	-11.3978
дачей	-11.3996
▁находящем	-11.3998
ельсо	-11.4002
▁напол	-11.4014
▁восста	-11.4019
▁сосредоточ	-11.4024
▁отступать	-11.4029
▁ссора	-11.403
▁предсказуем	-11.404
▁дополнительны	-11.4057
казывают	-11.4069
▁лишни	-11.4079
▁связанн	-11.4082
▁трудов	-11.4094
пан	-11.4101
▁сказк	-11.4107
откровенн	-11.4113
66	-11.4127
▁взволнованно	-11.4133
сочувствовать	-11.4134
▁вре	-11.4134
предсказуемым	-11.4137
..	-11.4149
▁последующи	-11.4157
исп	-11.4167
▁имеющ	-11.4167
▁умственны	-11.4171
▁начат	-11.4192
▁стесн	-11.4195
крик	-11.4195
вне	-11.4205
▁смирени	-11.4211
анный	-11.4222
боль	-11.4225
▁дому	-11.4237
▁конкретно	-11.424
▁устно	-11.4243
рак	-11.4244
глаз	-11.4251
▁гр	-11.4252
▁изобретател	-11.4253
▁успешн	-11.4256
ящее	-11.4258
▁подари	-11.4264
▁вороти	-11.4274
▁выдержива	-11.4276
нировать	-11.4283
дии	-11.4286
▁сверши	-11.4304
анно	-11.4307
ёк	-11.4316
▁обиженны	-11.4318
▁борющи	-11.4336
мом	-11.4339
▁глухом	-11.4342
▁расстроен	-11.4348
▁эми	-11.4349
▁сте	-11.4369
▁проч	-11.4373
▁недавн	-11.4374
мирание	-11.4389
давно	-11.4397
вый	-11.4398
ева	-11.4405
▁оцен	-11.4418
коней	-11.442
▁смертельн	-11.442
▁соблюда	-11.4424
▁неотл	-11.4435
▁неосновательн	-11.4436
▁настоящ	-11.4437
▁безупречно	-11.4438
▁твёрдо	-11.4438
▁поджа	-11.4441
ища	-11.4443
хом	-11.4452
▁бесплодно	-11.4457
▁ранни	-11.4462
▁опасностя	-11.4466
▁значимы	-11.4468
носящи	-11.4468
▁сказ	-11.4479
родное	-11.4486
▁срыва	-11.4497
анта	-11.4497
▁поразить	-11.4498
▁заман	-11.4499
овый	-11.45
▁соблюд	-11.4517
мири	-11.4523
▁курени	-11.4528
▁нежно	-11.4533
▁сует	-11.4548
▁способн	-11.4551
▁болезненном	-11.4553
▁массовы	-11.4559
▁тонкост	-11.4563
▁оторв	-11.4566
▁погружен	-11.4567
▁гад	-11.4576
▁(185	-11.4577
чан	-11.4582
▁существовавше	-11.4601
▁ссор	-11.4612
▁удовольстви	-11.4619
▁вве	-11.462
▁социальны	-11.4623
твор	-11.463
▁достоверны	-11.4644
▁примерно	-11.4671
▁огранич	-11.4672
реста	-11.4678
строен	-11.4678
▁создавше	-11.4682
▁вымира	-11.4682
звлекает	-11.4686
тивно	-11.4686
изобретательност	-11.4692
▁испытавши	-11.4693
▁оскорблен	-11.4693
▁находит	-11.4695
▁опере	-11.4696
▁отстава	-11.4698
▁поспешн	-11.4703
таясь	-11.4713
адки	-11.4713
ась	-11.4722
▁уб	-11.4728
▁предназначен	-11.4738
▁отража	-11.4744
явить	-11.4748
▁внутренни	-11.4757
спокойном	-11.4757
▁безрассуд	-11.4757
▁позволяю	-11.4764
работать	-11.4772
оображае	-11.4775
▁пропад	-11.4785
▁бор	-11.4791
гова	-11.4792
▁следующи	-11.4793
▁продолжени	-11.4794
▁несерьёзн	-11.4794
▁больном	-11.4795
сл	-11.4796
▁настойчивом	-11.4796
хим	-11.48
▁довер	-11.4802
▁пах	-11.4807
▁корыстн	-11.4814
порить	-11.4814
▁преврати	-11.4815
▁небольшом	-11.4822
▁самостоятельны	-11.4822
▁безосновательн	-11.4822
желания	-11.4827
▁имен	-11.4837
▁проща	-11.4854
▁полученны	-11.486
▁занимают	-11.4862
▁неизбежн	-11.4877
▁тре	-11.4883
▁видим	-11.4886
▁несбыточн	-11.489
стр	-11.4903
▁особенност	-11.4909
▁последующ	-11.491
страстном	-11.4916
весёл	-11.4922
▁выясни	-11.4934
▁желаю	-11.4942
виться	-11.4948
▁проливн	-11.4954
заслуженной	-11.4972
страдает	-11.4987
▁безграничны	-11.5
▁члено	-11.5009
▁вспыльчив	-11.5019
▁коне	-11.5028
▁обусловлен	-11.5039
▁обиженн	-11.5058
▁лич	-11.5063
▁шумно	-11.5065
▁добье	-11.5066
▁установленн	-11.5067
▁мысл	-11.5067
поль	-11.5068
▁серьёзе	-11.5071
▁молодо	-11.5071
▁гряз	-11.5082
▁безосновательны	-11.5085
▁мерк	-11.509
▁черно	-11.5099
яр	-11.5106
▁несовершенны	-11.5109
▁молчалив	-11.511
ников	-11.5111
▁осуществ	-11.5116
▁пролив	-11.5123
культур	-11.5125
▁мучи	-11.5128
▁умею	-11.5138
▁прожи	-11.514
▁нед	-11.5147
▁разбит	-11.5149
ённ	-11.5161
r	-11.5162
▁предстоящ	-11.5163
шко	-11.5163
▁чт	-11.5171
сходит	-11.5186
▁пускать	-11.519
учения	-11.5195
вшему	-11.5208
▁нападени	-11.5209
▁огромно	-11.5214
▁удовлетворять	-11.5216
▁сосредоточи	-11.5226
▁типичн	-11.5227
хнет	-11.5227
▁произнос	-11.5234
сп	-11.5237
игла	-11.5239
остях	-11.5248
▁умн	-11.5263
▁склоне	-11.5265
▁заб	-11.5272
▁исчеза	-11.5274
лефо	-11.5275
▁пьяном	-11.5275
игра	-11.5287
ум	-11.529
▁би	-11.5292
▁опис	-11.5297
работ	-11.5303
одил	-11.5303
▁ноч	-11.5311
ующий	-11.5314
тивн	-11.5318
ёшь	-11.5322
спортив	-11.5323
▁производ	-11.5333
потребля	-11.5335
▁церковн	-11.535
лок	-11.5353
▁советско	-11.5355
▁жад	-11.5359
которого	-11.536
манный	-11.5374
▁появ	-11.5374
▁живот	-11.5377
мира	-11.5392
▁форм	-11.5398
толково	-11.5406
▁выявит	-11.5417
▁кар	-11.5417
▁несовершенн	-11.542
▁привлекательн	-11.5431
▁условиям	-11.5439
ходных	-11.5444
▁образованны	-11.5462
тар	-11.5463
щности	-11.5464
яющая	-11.547
рок	-11.5471
шее	-11.5475
▁денеж	-11.5476
косо	-11.5478
▁церков	-11.5482
▁родн	-11.5489
ребенке	-11.5489
▁дополнительн	-11.5494
▁выпров	-11.55
▁духовн	-11.5502
▁безграмотн	-11.551
▁меш	-11.553
▁проигра	-11.5541
▁зарабатывае	-11.5542
▁данны	-11.5552
▁дол	-11.5555
▁политически	-11.5561
▁ид	-11.5568
▁кратковременно	-11.5571
▁помир	-11.5575
▁южн	-11.5576
▁угоди	-11.5577
▁сказочн	-11.5579
▁обсужд	-11.5602
носят	-11.5607
нея	-11.5611
▁счастлив	-11.562
▁навязчиво	-11.5622
▁сбора	-11.5632
▁важ	-11.5635
тки	-11.5636
▁прив	-11.5638
▁суетя	-11.5642
▁новом	-11.5647
▁выговорить	-11.565
авлять	-11.567
▁стрем	-11.5675
нт	-11.5676
▁расстроенн	-11.5682
▁науч	-11.5684
▁обнаруж	-11.57
▁умственн	-11.5708
▁дрожа	-11.5712
гляд	-11.5712
▁уходя	-11.5714
▁завер	-11.5726
ели	-11.573
дачить	-11.573
▁искаж	-11.5736
▁заст	-11.5744
родить	-11.5745
лита	-11.5748
▁местны	-11.5748
ады	-11.5749
▁43	-11.5753
▁узнав	-11.5786
▁прошл	-11.5794
▁относ	-11.5799
требовать	-11.58
▁полюби	-11.5804
св	-11.5804
▁приспособленн	-11.581
▁дал	-11.581
▁мнимы	-11.5828
▁вест	-11.5836
▁сказанны	-11.5841
▁печал	-11.5842
▁пуска	-11.5847
▁достойн	-11.5856
▁уча	-11.5861
красивым	-11.5863
▁разго	-11.5875
▁реч	-11.5878
▁расс	-11.588
шими	-11.5883
▁наслажда	-11.5884
▁беспокоя	-11.589
▁объ	-11.5894
▁новост	-11.5899
емы	-11.5908
делять	-11.5916
▁служб	-11.5919
no	-11.5919
▁достигнуто	-11.5924
▁куп	-11.5933
протестова	-11.5935
▁поддержат	-11.5948
▁уверя	-11.5953
▁желан	-11.5961
строенно	-11.5962
епе	-11.5969
каз	-11.5977
нование	-11.5977
▁нищ	-11.598
ён	-11.5984
▁поддающ	-11.599
▁полноч	-11.5991
▁истинн	-11.5994
▁кисл	-11.6001
бор	-11.6005
▁взволнованн	-11.6011
рик	-11.6013
техническ	-11.6018
▁болтлив	-11.6027
▁обреченн	-11.603
оса	-11.6034
▁капитали	-11.6036
слом	-11.6038
пугало	-11.6043
▁странств	-11.6049
кому	-11.6052
тическо	-11.6058
идное	-11.606
ажды	-11.6075
лить	-11.608
▁обор	-11.6095
▁противореч	-11.6107
▁отправить	-11.6111
▁красно	-11.6113
▁трезвы	-11.6121
ступать	-11.6127
▁существ	-11.6135
▁просл	-11.6138
щей	-11.6141
▁непонят	-11.6147
▁разбо	-11.6148
нется	-11.6152
звали	-11.6159
▁христианско	-11.6169
▁делят	-11.617
▁иск	-11.6175
▁позорн	-11.6179
▁тепла	-11.6185
▁стрель	-11.6186
▁одурач	-11.6196
▁беспре	-11.6201
▁повлеч	-11.6202
живаться	-11.6204
▁блажен	-11.6208
▁секретно	-11.6208
▁понятна	-11.6212
вет	-11.6213
▁невысок	-11.6216
▁настоящи	-11.6219
▁ошеломи	-11.6229
▁посредственн	-11.6234
▁ар	-11.6235
▁праздност	-11.6242
▁ши	-11.6242
таф	-11.6243
▁придума	-11.6244
больных	-11.625
▁впер	-11.6251
одящая	-11.6262
▁ярки	-11.6272
цам	-11.6277
▁сви	-11.629
91	-11.6309
ошедшем	-11.6327
тонкое	-11.6344
пал	-11.635
доказательн	-11.6358
девать	-11.6367
▁обозначи	-11.6396
рюм	-11.6407
▁покорн	-11.6417
служить	-11.6419
▁приятел	-11.6419
▁приш	-11.643
умеет	-11.644
мешаться	-11.6441
▁пров	-11.6442
▁бездеятельн	-11.6445
ельным	-11.6458
▁пле	-11.6459
▁голодны	-11.6463
шит	-11.6474
▁дополня	-11.6475
▁похорон	-11.6477
нному	-11.6477
▁солян	-11.6487
полнять	-11.6489
ива	-11.6502
▁рос	-11.6516
▁выку	-11.6518
▁интрига	-11.652
▁прояв	-11.653
▁выделять	-11.653
▁прям	-11.6531
ром	-11.6538
▁творческ	-11.6541
▁шахматн	-11.6546
тихий	-11.6562
ческ	-11.6577
вернуться	-11.6583
еречь	-11.6587
▁энергич	-11.6589
▁вынужденн	-11.659
част	-11.6594
▁наивны	-11.6601
снимать	-11.6616
▁верны	-11.6626
▁останавлива	-11.6631
▁фут	-11.6633
кинул	-11.6648
вали	-11.6656
бра	-11.6658
▁привычн	-11.6662
▁необычн	-11.6692
▁остал	-11.67
сив	-11.67
▁происходящи	-11.6709
▁объединен	-11.6714
▁привлекательны	-11.6742
ающих	-11.6742
▁лишенн	-11.6744
▁непредсказуемы	-11.6765
▁ценност	-11.6771
▁наблюда	-11.6771
▁независим	-11.6781
▁чудодейственны	-11.6801
▁неловк	-11.6808
стоять	-11.6812
▁терпи	-11.6814
▁подверга	-11.682
имуществе	-11.6825
▁первом	-11.6828
▁сложивш	-11.6847
ак	-11.6855
▁неприязн	-11.6859
ствова	-11.6865
▁должност	-11.6867
▁будуще	-11.6874
▁поняв	-11.6882
чу	-11.6884
▁красивы	-11.6887
▁обществ	-11.6894
▁юр	-11.6895
▁средн	-11.6901
▁разн	-11.691
▁пого	-11.692
▁душ	-11.6926
▁георгиевск	-11.6931
▁безумн	-11.6959
рованно	-11.6959
▁испытавш	-11.6962
гал	-11.6963
▁преступ	-11.6967
суеверным	-11.6971
▁стихи	-11.6975
▁стандарт	-11.698
еля	-11.6986
лова	-11.6993
ностью	-11.6995
▁пренебреж	-11.6997
▁надёжн	-11.7004
реш	-11.7008
▁вор	-11.7017
▁случи	-11.7019
дали	-11.703
▁потерянн	-11.7031
▁задум	-11.7045
▁сно	-11.7048
▁прибы	-11.7055
алась	-11.7055
▁справедлив	-11.7056
▁улич	-11.7061
клада	-11.7075
▁ценна	-11.7077
реагирова	-11.7083
▁кор	-11.7083
▁производств	-11.7085
▁изоб	-11.709
сердечны	-11.7095
личном	-11.7096
▁возду	-11.7102
▁соп	-11.711
▁многочисленны	-11.7122
▁раду	-11.7133
аешь	-11.7139
▁сопровождаю	-11.7148
казание	-11.7149
▁крас	-11.7151
▁назначенн	-11.7153
▁очер	-11.7176
▁несуществующе	-11.7186
предусмотрительн	-11.7191
носили	-11.7195
▁вызванны	-11.7205
▁пон	-11.7208
▁верующ	-11.722
▁прикидывающи	-11.7226
▁вед	-11.7231
▁научн	-11.7242
▁тих	-11.7249
▁порва	-11.7251
▁ры	-11.7265
▁переда	-11.7266
▁подстр	-11.7271
▁хлопо	-11.7272
▁бое	-11.7272
▁бур	-11.7286
▁постар	-11.7286
▁весел	-11.7287
▁незамеченны	-11.7291
▁зрени	-11.7307
▁уязвим	-11.7313
▁дер	-11.7318
▁исправи	-11.7325
утся	-11.7327
▁чёр	-11.734
ним	-11.734
зрения	-11.7341
▁вход	-11.7349
искренним	-11.7352
▁интересны	-11.7364
мани	-11.737
▁рассуд	-11.7377
▁лече	-11.7393
▁серьёз	-11.7393
▁угол	-11.74
▁появление	-11.74
▁осмотрительн	-11.7401
летн	-11.7402
▁объединя	-11.7403
▁лишнем	-11.7421
нной	-11.7422
ьма	-11.7425
кады	-11.7427
▁ироническ	-11.7438
▁брос	-11.744
▁разме	-11.7441
▁пойм	-11.7455
нского	-11.7462
▁гер	-11.7471
▁дру	-11.7483
ыр	-11.7489
▁древнег	-11.7494
▁мирно	-11.7497
▁неуместн	-11.7504
ме	-11.7508
свои	-11.7509
▁прекрасн	-11.7513
жно	-11.7526
▁крупны	-11.7527
▁преувелич	-11.7527
▁видимо	-11.753
▁торгов	-11.754
▁эп	-11.7554
уры	-11.7555
пе	-11.7562
▁сомнени	-11.7564
▁привлекающ	-11.7576
▁находчивы	-11.7577
▁прогн	-11.7582
▁жестоком	-11.7584
овести	-11.7588
▁отплат	-11.7588
▁вопросам	-11.7599
60	-11.7601
шла	-11.7608
▁расстройств	-11.7609
▁полагать	-11.7611
▁затяну	-11.7617
▁видя	-11.7618
▁сна	-11.7619
▁спеш	-11.762
ляющимся	-11.7622
▁популярност	-11.7624
▁защищ	-11.7633
▁крае	-11.7637
▁ненужны	-11.7638
▁несерьезн	-11.7638
иста	-11.7641
аб	-11.7644
▁продаж	-11.7644
опасности	-11.7651
мол	-11.7652
▁изменяет	-11.7654
крывает	-11.7658
пределения	-11.7669
кладывая	-11.7673
ерах	-11.77
чным	-11.7704
▁тро	-11.7706
▁предупрежда	-11.7707
▁неопыт	-11.7708
▁промышл	-11.7716
пор	-11.7724
▁сэконом	-11.7731
верным	-11.7756
▁коммент	-11.7792
щад	-11.7795
▁храни	-11.7797
▁несправедливом	-11.7802
грубое	-11.7807
иваются	-11.781
крытий	-11.7812
▁раск	-11.7813
▁неисправим	-11.7814
оряд	-11.7816
серьезным	-11.7826
ывает	-11.7826
▁сдержива	-11.783
лежит	-11.7831
▁мра	-11.7838
▁отправ	-11.7843
▁рождае	-11.7846
чивать	-11.7854
аренном	-11.7863
ресса	-11.7866
▁прот	-11.7866
▁вмешиваю	-11.7875
▁угрожа	-11.7882
ельно	-11.7884
▁привед	-11.7894
▁свар	-11.7895
уб	-11.7899
▁начальн	-11.7917
след	-11.7917
▁требовало	-11.792
▁легкомысленн	-11.7929
▁одобр	-11.7931
пир	-11.7931
▁бесплотно	-11.7932
являет	-11.7932
стного	-11.7934
▁умно	-11.7937
▁подчинен	-11.7939
чный	-11.794
рая	-11.7951
▁особы	-11.7954
▁тяж	-11.7958
держки	-11.7969
▁эмоциональн	-11.7969
▁попад	-11.797
▁разрушител	-11.7974
▁жадно	-11.798
▁образова	-11.7981
▁растерянно	-11.7989
▁ази	-11.7991
▁насторож	-11.7995
▁засыпа	-11.7996
▁устал	-11.7997
▁увлеч	-11.8002
ерно	-11.8011
▁позд	-11.8016
▁уверенно	-11.8017
▁куша	-11.8021
▁необоснованн	-11.8025
строил	-11.8027
ачном	-11.8031
▁движ	-11.8038
раж	-11.8043
▁сдел	-11.8059
бег	-11.806
▁осуществл	-11.8067
▁пакост	-11.8071
▁близ	-11.8076
▁хладнокров	-11.8077
▁препятств	-11.8085
▁нос	-11.8086
▁убежд	-11.8096
▁ценностя	-11.8097
▁выходит	-11.8101
▁изготовлен	-11.8104
▁замеч	-11.811
пола	-11.8119
▁нож	-11.8123
▁смеет	-11.8126
неправдоподобном	-11.8127
▁скромно	-11.8133
сыпается	-11.8142
▁ус	-11.8146
▁ненавистны	-11.8148
▁любящ	-11.8153
▁желательно	-11.8158
▁удачн	-11.8158
ищем	-11.816
▁авторитетны	-11.8171
▁объявл	-11.8173
мая	-11.8209
ход	-11.8214
обед	-11.8221
начальная	-11.8224
▁известн	-11.8232
достаточны	-11.8236
▁гладк	-11.8237
лы	-11.8255
сша	-11.8258
▁неизвестны	-11.8262
рёт	-11.8264
▁нелюбовь	-11.8277
▁мним	-11.8288
▁выгодн	-11.8292
▁прият	-11.8297
лой	-11.8309
деле	-11.8322
енными	-11.8327
▁зака	-11.8334
▁впада	-11.8336
▁занимает	-11.834
▁поощр	-11.834
ровня	-11.8341
хватить	-11.835
▁дорож	-11.8368
иях	-11.8369
▁изменяя	-11.8375
▁заинтересован	-11.8381
▁подозр	-11.8406
▁богаты	-11.8413
▁лишён	-11.8414
▁опасност	-11.8415
▁отвлеч	-11.8419
▁любопыт	-11.8424
▁жд	-11.8434
ед	-11.8442
▁веду	-11.8458
▁забы	-11.846
▁ал	-11.8462
▁сочувствова	-11.8466
зависимом	-11.8497
▁преград	-11.8517
▁психическ	-11.8519
жения	-11.852
▁доступн	-11.8521
ас	-11.8526
истине	-11.8527
анец	-11.8543
▁быт	-11.8548
решить	-11.8569
▁закончит	-11.8572
▁набрать	-11.8572
▁назнач	-11.8577
▁животн	-11.858
▁излишни	-11.8581
▁тесн	-11.8581
шней	-11.8582
▁смертны	-11.8602
▁запрещ	-11.8616
▁трусливо	-11.8627
▁неясн	-11.8629
▁неискренн	-11.8634
▁способств	-11.8636
▁вложен	-11.8646
▁тол	-11.8653
порядка	-11.8654
▁неполно	-11.8656
▁сочин	-11.8657
▁цвете	-11.8663
▁реклам	-11.8664
▁вклад	-11.8672
▁спиртн	-11.8683
▁знат	-11.8684
ведению	-11.8688
▁употребляемы	-11.8688
▁подвиж	-11.8688
рался	-11.8694
▁поб	-11.8711
хов	-11.8715
▁давни	-11.8715
саду	-11.874
▁основан	-11.8745
▁уны	-11.875
разн	-11.8753
вод	-11.8759
▁потрясен	-11.8761
ичный	-11.8765
▁притян	-11.8776
частью	-11.8782
▁объяв	-11.8783
▁внимательн	-11.8786
▁замысл	-11.8796
чинять	-11.8798
▁интереса	-11.881
ri	-11.881
▁реж	-11.8813
▁ответственн	-11.8817
▁злить	-11.8818
щение	-11.8819
ительном	-11.8821
▁вразум	-11.8822
▁неумном	-11.8823
▁учебн	-11.8823
али	-11.8831
▁утомительно	-11.8834
вки	-11.8838
солдатск	-11.8846
▁иску	-11.8851
▁попа	-11.8855
▁ирон	-11.8862
▁вооружен	-11.8866
▁хм	-11.8869
▁отличающе	-11.8869
мысл	-11.888
▁смен	-11.8881
▁непостоянно	-11.8898
▁удивительн	-11.8899
▁выступ	-11.8915
▁делит	-11.8917
▁равнодуш	-11.892
пол	-11.8921
▁осве	-11.8922
ловать	-11.8923
пле	-11.8926
ственное	-11.8934
▁предсказа	-11.8936
зван	-11.8938
▁поощрен	-11.8942
▁си	-11.8943
так	-11.8948
▁бл	-11.895
▁схватить	-11.8952
▁дра	-11.8953
оживить	-11.8956
▁прелю	-11.8958
нам	-11.8958
щие	-11.8966
▁требу	-11.8969
пору	-11.8971
хитрить	-11.8973
▁французско	-11.8974
диться	-11.8976
▁некачественн	-11.8978
сю	-11.8987
асса	-11.8987
казательный	-11.9002
▁церемон	-11.9002
▁груст	-11.9008
зовет	-11.901
стоя	-11.9022
▁основанны	-11.9022
лу	-11.9029
▁возда	-11.9033
ница	-11.9033
руш	-11.9034
будь	-11.9034
зких	-11.9045
▁близком	-11.9047
нька	-11.9051
▁страш	-11.9053
шают	-11.9059
▁расчетлив	-11.9061
дном	-11.9064
▁угощени	-11.9065
▁искусстве	-11.9076
▁выдел	-11.9077
▁покор	-11.9077
▁несчастн	-11.9085
▁пара	-11.9087
▁освящ	-11.9089
▁комфорт	-11.9094
раз	-11.9094
▁сконча	-11.9106
▁оценит	-11.9113
▁ев	-11.9122
▁действительн	-11.9127
▁валят	-11.9135
▁обеспеч	-11.9136
▁приветлив	-11.9147
▁выспавши	-11.9159
рами	-11.9162
▁действ	-11.9167
▁напад	-11.9169
▁незаконно	-11.9172
▁вини	-11.9175
тать	-11.9188
▁вечны	-11.9193
▁говор	-11.9207
▁советов	-11.9208
опуская	-11.921
лению	-11.921
▁отступит	-11.922
▁повыш	-11.922
ивается	-11.9222
бильный	-11.9223
ящ	-11.9223
▁свернут	-11.9229
▁бесстыд	-11.9233
▁считаю	-11.9234
▁разрыв	-11.9237
слушать	-11.9243
ари	-11.9243
▁обрат	-11.9254
▁заметн	-11.9264
▁отрицательно	-11.9265
▁забота	-11.9274
▁мужчин	-11.9278
дель	-11.9298
▁убийств	-11.9306
▁стояще	-11.9307
▁окончательн	-11.9314
помниться	-11.9317
управляем	-11.9317
▁насмеш	-11.9319
▁следов	-11.9323
▁служ	-11.9324
▁останови	-11.933
▁подчиненн	-11.9346
▁перемен	-11.9347
▁конч	-11.9351
▁злоде	-11.9354
охран	-11.9355
тивное	-11.9356
▁течени	-11.9365
▁беспощадн	-11.9367
▁сходны	-11.9372
▁распит	-11.9372
ившая	-11.938
▁предопредел	-11.9381
перехватыва	-11.9381
▁привыч	-11.9387
▁опер	-11.9398
чинить	-11.9414
▁фин	-11.9422
каза	-11.9423
▁вступи	-11.9423
ленный	-11.9424
шенно	-11.9424
головно	-11.9431
▁нароч	-11.9437
▁заняти	-11.9448
▁винит	-11.9449
▁состояни	-11.945
▁оказавш	-11.9471
▁колоти	-11.9475
пки	-11.9479
ывая	-11.9481
▁утвержда	-11.9483
▁метк	-11.9488
▁прод	-11.9488
длинно	-11.949
▁присутству	-11.9492
▁распростран	-11.9493
▁необходима	-11.9498
▁выг	-11.9507
ват	-11.9516
чились	-11.9521
людно	-11.9524
▁умере	-11.9525
▁изводит	-11.9526
▁незаслуженн	-11.9527
▁скромни	-11.9531
решения	-11.9539
усерд	-11.9541
▁озадаченн	-11.9549
▁недоумени	-11.9552
▁попыт	-11.9554
нке	-11.956
▁добав	-11.9561
екать	-11.9566
онов	-11.9566
едливом	-11.9566
лож	-11.9573
госте	-11.9575
▁нанес	-11.9584
риться	-11.959
зависимы	-11.9597
конья	-11.9597
▁сме	-11.9599
▁совет	-11.9604
крывать	-11.9604
▁жен	-11.961
продвижени	-11.9616
са	-11.9618
▁руга	-11.962
▁послед	-11.9622
▁сегодняшни	-11.9626
▁догада	-11.9628
уся	-11.964
▁запомни	-11.9642
▁шап	-11.9646
▁супружес	-11.9649
▁польз	-11.9651
▁дворянск	-11.9653
▁сбежа	-11.9656
женный	-11.9657
обстоятельствами	-11.9667
▁промежут	-11.9667
▁математи	-11.9667
нед	-11.9668
драть	-11.967
▁произведени	-11.9681
только	-11.9681
конфликтно	-11.9684
устаревше	-11.9687
▁бесконечны	-11.9687
▁допо	-11.9692
▁категоричн	-11.9698
▁спокойстви	-11.9705
▁ссыл	-11.9707
явление	-11.971
вывода	-11.9723
снижени	-11.9727
▁решая	-11.9727
▁постоянны	-11.9728
▁восторже	-11.9746
евато	-11.9748
▁ребен	-11.975
читает	-11.9751
▁покровитель	-11.9771
▁предприяти	-11.9776
запасливо	-11.9777
▁коротк	-11.9779
▁свя	-11.978
▁шути	-11.9787
смотрит	-11.9789
▁лини	-11.979
▁расстроит	-11.9791
▁раскр	-11.9794
чета	-11.9794
▁поручен	-11.9799
зная	-11.98
строенная	-11.9803
▁российски	-11.9811
удно	-11.9814
чувствительно	-11.9814
поминани	-11.9814
▁сле	-11.9818
▁вла	-11.9818
▁проще	-11.9824
едва	-11.9833
олную	-11.9834
человеке	-11.9839
дался	-11.9843
образным	-11.9846
▁управлен	-11.985
▁прежнем	-11.9855
▁неосторожно	-11.9858
▁находяще	-11.9863
▁мело	-11.9865
▁вырази	-11.9871
▁кончать	-11.9879
подъём	-11.9881
▁редк	-11.9883
▁уве	-11.9884
гать	-11.9886
тить	-11.9888
▁перек	-11.9889
дира	-11.9894
▁единстве	-11.9896
▁смирить	-11.9896
▁понят	-11.9898
▁создающ	-11.9899
▁арест	-11.9904
разделение	-11.9909
▁ковар	-11.9912
исключ	-11.9913
иди	-11.9914
▁скло	-11.9916
▁достигае	-11.9917
▁вступ	-11.9926
▁позво	-11.9927
▁прово	-11.9932
▁вероятно	-11.9937
шедши	-11.9943
▁раскрыт	-11.9946
▁невозмутим	-11.9947
▁устар	-11.9954
анна	-11.9956
▁несущественн	-11.9958
рки	-11.9961
▁блаж	-11.9961
▁торопи	-11.9965
▁устаревш	-11.9971
▁тихи	-11.9974
▁опьян	-11.9976
▁взаимоотношени	-11.9976
ственности	-11.998
ливым	-11.9984
ea	-11.9985
▁опти	-11.9985
▁инвестор	-11.9989
▁бесчест	-11.9998
всегда	-12
▁вынужд	-12.0001
▁подражат	-12.0002
льным	-12.0006
ище	-12.0006
ушным	-12.0011
▁участника	-12.0012
ладко	-12.0012
▁чист	-12.0013
▁оказали	-12.0021
▁езд	-12.0022
▁увлечен	-12.0022
▁алкогол	-12.0024
▁подстав	-12.0025
обосновыва	-12.0025
▁изуч	-12.0031
▁греховн	-12.0033
▁професс	-12.0037
есня	-12.0037
▁добром	-12.0038
▁окружени	-12.004
рил	-12.0042
▁успе	-12.0043
ноше	-12.0044
помнить	-12.0046
▁свойстве	-12.0046
▁вероятн	-12.0047
дело	-12.0049
▁пристал	-12.0053
▁обстоят	-12.0053
▁нестабильност	-12.0056
▁порожд	-12.0057
ованию	-12.0058
ословно	-12.0058
▁достиж	-12.0058
▁склонить	-12.006
ясно	-12.0073
▁похоже	-12.0074
▁застав	-12.0075
▁норм	-12.0081
▁разум	-12.0082
▁авто	-12.0083
ди	-12.0084
кажут	-12.0086
сплетен	-12.0089
▁направлять	-12.0093
служб	-12.0094
▁терп	-12.0096
▁предательств	-12.0103
▁исключительн	-12.0103
сторонне	-12.0104
творяющий	-12.0105
удачу	-12.0105
одно	-12.0106
▁вез	-12.0107
▁жалова	-12.0108
▁ускор	-12.0108
лоняющих	-12.011
▁незнаком	-12.0114
долго	-12.0114
▁оружи	-12.0114
открыть	-12.0115
▁испытав	-12.0122
▁потвер	-12.0126
арстве	-12.0132
добав	-12.0132
грубо	-12.0132
лично	-12.014
▁помощ	-12.0141
▁француз	-12.0142
ота	-12.0145
▁завершен	-12.0146
▁писател	-12.0157
▁холо	-12.0158
▁радост	-12.0159
▁нерешительно	-12.0162
кула	-12.0162
имистом	-12.0163
дня	-12.0166
▁съе	-12.0169
▁упорн	-12.0171
▁часты	-12.0173
онный	-12.0173
начала	-12.0174
ваивать	-12.0177
жар	-12.0177
ждения	-12.0179
кнуться	-12.0184
▁гуля	-12.0184
ичать	-12.0186
▁минист	-12.0188
знать	-12.0188
▁уров	-12.019
явшееся	-12.0192
▁уговор	-12.0195
альным	-12.0197
▁недружелюб	-12.0198
▁услови	-12.02
▁ча	-12.02
карт	-12.0201
пря	-12.0201
▁исправлени	-12.0202
умер	-12.0203
▁безразлич	-12.0205
ограниченно	-12.0207
направленно	-12.021
дней	-12.0212
▁ввод	-12.0213
▁невер	-12.0213
ливый	-12.0213
▁испыты	-12.0215
▁составит	-12.0219
благородны	-12.022
▁продел	-12.022
▁октябрь	-12.022
▁созна	-12.022
коро	-12.0224
шающего	-12.0226
овал	-12.0226
▁изготов	-12.0228
ступлении	-12.0228
▁доверчиво	-12.0229
люди	-12.023
ейся	-12.0231
лучше	-12.0232
имущество	-12.0234
букв	-12.0234
принятым	-12.0234
есном	-12.0235
▁положить	-12.0236
▁враждебн	-12.0236
грязну	-12.024
хитрост	-12.024
▁зр	-12.0242
ственного	-12.0242
треть	-12.0243
высок	-12.0246
си	-12.0247
дружески	-12.0248
цвета	-12.0248
▁помещ	-12.025
▁нач	-12.025
владел	-12.0252
ленном	-12.0252
сомнительн	-12.0252
дальше	-12.0255
ынь	-12.0256
рстве	-12.0265
откры	-12.0265
жег	-12.0266
ситуацию	-12.0268
▁взаим	-12.0268
▁обстановк	-12.0271
крайне	-12.0271
влять	-12.0273
▁пи	-12.0273
эффективно	-12.0276
ивости	-12.0277
где	-12.0278
состояние	-12.0279
▁влече	-12.028
▁привод	-12.0281
▁дик	-12.0283
добиться	-12.0286
шаться	-12.0287
виду	-12.0288
радостно	-12.0289
▁вооруж	-12.029
православн	-12.029
ороны	-12.0292
женщине	-12.0292
▁схват	-12.0292
час	-12.0293
ночи	-12.0293
стройно	-12.0294
48	-12.0297
естественно	-12.0297
типичн	-12.0298
▁осужда	-12.0299
льнике	-12.0299
▁экономит	-12.0301
ругают	-12.0302
стыдить	-12.0306
▁шта	-12.0306
▁готова	-12.0307
конца	-12.0307
▁существе	-12.0308
поступки	-12.0309
сохранить	-12.0309
ман	-12.0309
готов	-12.031
чину	-12.031
▁оставит	-12.031
▁неумно	-12.0311
илета	-12.0311
народно	-12.0312
взяты	-12.0313
▁недовер	-12.0313
тупить	-12.0313
церемонно	-12.0315
эгоист	-12.0315
успеха	-12.0317
покупк	-12.0318
▁навяз	-12.0318
кровь	-12.0319
лишить	-12.0321
озно	-12.0321
стар	-12.0322
ительными	-12.0322
заповед	-12.0323
фамильярно	-12.0324
▁персона	-12.0325
дружить	-12.0326
недоверие	-12.0326
сматривать	-12.0328
испытывать	-12.0328
крыва	-12.033
мечтать	-12.033
представление	-12.033
берег	-12.0332
пьянство	-12.0332
образования	-12.0332
повышени	-12.0332
сосредоточ	-12.0335
непонятно	-12.0335
молчать	-12.0335
ительной	-12.0336
понимать	-12.0336
шаги	-12.0337
▁фу	-12.0337
▁мину	-12.0337
политик	-12.0338
дурак	-12.0339
ческой	-12.0339
пребывани	-12.034
движение	-12.0341
эл	-12.0341
слова	-12.0341
богатство	-12.0343
супруг	-12.0343
▁изгна	-12.0343
шутка	-12.0344
погибнуть	-12.0344
обращения	-12.0345
беж	-12.0346
бур	-12.0346
уменьша	-12.0346
менеджер	-12.0346
самоотверженно	-12.0346
недостаток	-12.0347
надоесть	-12.0347
сплетни	-12.0348
годится	-12.0348
христианск	-12.0348
праве	-12.0349
компании	-12.0349
плоды	-12.035
аргумент	-12.035
семье	-12.035
наказать	-12.035
испытать	-12.035
славы	-12.035
злоб	-12.0351
▁прихо	-12.0351
цев	-12.0351
плохие	-12.0351
свежем	-12.0351
сдаться	-12.0352
▁чинов	-12.0353
детали	-12.0354
намеренно	-12.0354
отношения	-12.0354
апах	-12.0355
крытое	-12.0355
красив	-12.0355
грамотным	-12.0355
дружбы	-12.0355
партии	-12.0356
поддерживать	-12.0356
прятаться	-12.0356
вовремя	-12.0356
пожалуйста	-12.0356
одним	-12.0356
деятельность	-12.0356
первоначально	-12.0357
ствием	-12.0357
бесплатно	-12.0357
лишний	-12.0357
озадачить	-12.0357
хозяин	-12.0357
рассердиться	-12.0357
согласиться	-12.0357
слыша	-12.0357
добиваться	-12.0358
плохого	-12.0358
крепкий	-12.0358
шуточно	-12.0358
склоне	-12.0359
неприятные	-12.0359
избить	-12.0359
▁храбр	-12.0359
дорогая	-12.0359
убеждения	-12.036
глуб	-12.036
пришел	-12.036
проблема	-12.036
дружелюбн	-12.036
пути	-12.0361
решено	-12.0361
необычное	-12.0361
почувствовать	-12.0362
сильнее	-12.0362
▁мера	-12.0363
богом	-12.0364
право	-12.0364
замолчать	-12.0364
вещи	-12.0364
милость	-12.0364
обещать	-12.0364
мужчинам	-12.0364
обдумать	-12.0364
высказать	-12.0364
принес	-12.0365
разговор	-12.0366
▁публичн	-12.0367
безупречно	-12.0368
готовности	-12.0369
двигаться	-12.0369
граждан	-12.037
горя	-12.0372
пасть	-12.0373
15	-12.0373
заботы	-12.0373
покровитель	-12.0373
▁дворян	-12.0374
применения	-12.0374
▁време	-12.0375
▁зимн	-12.0376
▁знамениты	-12.0376
▁супруг	-12.0377
обещал	-12.0378
▁оправдыва	-12.0378
изначальн	-12.0381
▁ухо	-12.0381
трудный	-12.0381
чистая	-12.0381
se	-12.0381
тивы	-12.0382
чуть	-12.0384
ручен	-12.0384
власт	-12.0384
забот	-12.0387
категорическо	-12.0387
▁знамени	-12.0387
корыстно	-12.0387
считает	-12.0387
▁тяго	-12.0388
смелый	-12.039
груди	-12.0391
▁солнц	-12.0393
лучш	-12.0393
толкнуть	-12.0394
▁заполн	-12.0395
тайне	-12.0395
близко	-12.0395
дорогой	-12.0395
будешь	-12.0396
▁восхищ	-12.0396
народ	-12.0396
трата	-12.0397
▁недостаточн	-12.0398
▁христиан	-12.0398
струк	-12.0399
вывод	-12.0401
счастливым	-12.0401
здоровый	-12.0402
логично	-12.0405
сосредоточить	-12.0405
равнодуш	-12.0406
кажется	-12.0406
богатой	-12.0406
упасть	-12.0407
▁поклон	-12.0407
перен	-12.0409
абл	-12.041
помощи	-12.0411
того	-12.0412
ключ	-12.0413
муж	-12.0413
доброжелательно	-12.0414
сплетничать	-12.0415
перек	-12.0415
добро	-12.0415
▁трудолюби	-12.0415
узнать	-12.0416
надо	-12.0418
распростран	-12.042
закон	-12.0421
хвастаться	-12.0421
лёгки	-12.0422
проигра	-12.0423
перво	-12.0423
▁недоуме	-12.0425
нтер	-12.0425
▁необъяснимо	-12.043
▁непристойно	-12.043
куса	-12.0431
складно	-12.0431
▁сокровенно	-12.0431
▁смятени	-12.0431
убить	-12.0433
▁застоль	-12.0434
▁говорил	-12.0434
замен	-12.0435
заметным	-12.0436
основ	-12.0439
предельно	-12.0439
ря	-12.044
дипл	-12.0441
▁информаци	-12.0443
▁отдел	-12.0443
▁тревож	-12.0443
▁расчёт	-12.0443
▁воскрес	-12.0444
▁бумаг	-12.0444
▁вознаграждени	-12.0445
▁заблужд	-12.0445
держи	-12.0447
чиков	-12.0447
счита	-12.0448
▁рим	-12.0448
велик	-12.0449
защищ	-12.0449
слух	-12.0452
нужным	-12.0453
▁терпен	-12.0453
требует	-12.0454
▁сбить	-12.0455
▁критик	-12.0456
▁ответственно	-12.0456
▁непонимани	-12.0456
▁дальней	-12.0458
позданием	-12.0458
заставить	-12.0459
▁избытк	-12.046
ложение	-12.0462
неистов	-12.0462
таль	-12.0462
▁отчёт	-12.0463
шение	-12.0463
дрожа	-12.0463
ошеломи	-12.0465
устойчиво	-12.0465
твёрды	-12.0465
упрям	-12.0466
▁несведу	-12.0466
блей	-12.0466
ея	-12.0467
приспособленн	-12.0468
уместно	-12.0469
▁посред	-12.0469
спрашива	-12.0471
сами	-12.0471
тяго	-12.0473
▁окру	-12.0474
сказанным	-12.0475
▁подчерк	-12.0475
▁материал	-12.0475
▁неприлично	-12.0475
действ	-12.0476
деятел	-12.0477
▁москв	-12.0477
▁услыша	-12.0479
рек	-12.048
охват	-12.0482
нициатив	-12.0483
видим	-12.0483
аккуратно	-12.0483
ором	-12.0484
▁чувствител	-12.0484
грамотны	-12.0485
береж	-12.0487
▁заинтересова	-12.0487
▁истори	-12.0487
▁подпис	-12.049
енции	-12.0492
сточник	-12.0493
честве	-12.0493
▁сообразител	-12.0493
логичное	-12.0494
явно	-12.0494
вр	-12.0495
▁орган	-12.0496
выполним	-12.0497
план	-12.0497
лотить	-12.0497
▁руководит	-12.05
стрелянны	-12.05
▁тревог	-12.0501
заботливо	-12.0502
▁осторожны	-12.0503
лавном	-12.0504
▁клятв	-12.0504
мудр	-12.0506
▁перевес	-12.0508
новый	-12.0509
моральны	-12.0509
длительно	-12.0509
меняемы	-12.051
толка	-12.051
ускор	-12.0511
знакомство	-12.0513
▁социал	-12.0513
преклон	-12.0516
душевн	-12.0516
услышанн	-12.0517
применя	-12.0517
судить	-12.0517
впопад	-12.0518
вход	-12.0518
▁решит	-12.0519
зуб	-12.0519
детски	-12.0521
▁тяг	-12.0521
ватели	-12.0522
немного	-12.0523
греческ	-12.0523
▁пренебре	-12.0523
▁наук	-12.0524
дова	-12.0524
минимальн	-12.0524
волю	-12.0525
▁луч	-12.0525
▁специал	-12.0526
ительнее	-12.0527
▁цивилизаци	-12.0528
▁гаранти	-12.0528
▁образуми	-12.0528
92	-12.0529
енство	-12.0529
▁нелогичн	-12.053
сон	-12.0531
арьер	-12.0531
оспоминаниях	-12.0531
▁велич	-12.0532
расторопн	-12.0532
ристальн	-12.0532
▁воплощ	-12.0532
▁строк	-12.0532
194	-12.0533
▁взбалмошн	-12.0533
хохотать	-12.0533
желательны	-12.0533
▁гостеприимств	-12.0534
убеди	-12.0535
ообраз	-12.0535
▁поэзи	-12.0535
▁льст	-12.0535
▁предпочт	-12.0537
▁воспоминани	-12.0537
смыслить	-12.0539
готовишь	-12.054
станавлива	-12.054
▁победил	-12.0541
ившимся	-12.0541
▁мучени	-12.0541
▁затратам	-12.0542
▁максимал	-12.0542
российск	-12.0544
служащ	-12.0544
▁криво	-12.0544
ительность	-12.0545
▁поч	-12.0545
способности	-12.0546
енсаци	-12.0546
живет	-12.0546
основан	-12.0547
уваж	-12.0548
талкива	-12.0548
▁столкн	-12.0549
▁безнадёжно	-12.0551
▁руководств	-12.0551
▁сожале	-12.0551
▁организ	-12.0553
щённый	-12.0553
▁роб	-12.0553
едова	-12.0553
заме	-12.0553
▁болтовн	-12.0554
▁предприимчивы	-12.0556
▁безрадостн	-12.0556
глубок	-12.0556
▁аккуратн	-12.0556
ительство	-12.0556
▁взаимопонимани	-12.0557
пул	-12.0558
табе	-12.0558
озьм	-12.0558
▁усердие	-12.0559
▁безответственн	-12.0559
правлен	-12.056
▁безжалостн	-12.056
▁пространств	-12.056
▁самоотверженн	-12.056
иностран	-12.056
правдоподоб	-12.056
плака	-12.0561
▁дыша	-12.0563
▁дисциплин	-12.0563
▁ночлег	-12.0563
▁подъем	-12.0563
▁сумятиц	-12.0563
▁кругозор	-12.0563
коротко	-12.0565
падении	-12.0565
▁подозре	-12.0565
чиста	-12.0566
туры	-12.0566
▁замыс	-12.0566
▁охраня	-12.0566
▁мук	-12.0567
▁отстран	-12.0568
ажен	-12.0568
болт	-12.0569
▁хлоп	-12.0569
▁анекдот	-12.0569
зост	-12.057
▁неразберих	-12.057
▁император	-12.057
▁присказк	-12.057
▁преступлени	-12.0571
▁шаблон	-12.0571
▁соблазн	-12.0571
▁управ	-12.0571
сочувств	-12.0571
▁центра	-12.0572
▁центр	-12.0572
▁произошл	-12.0573
рицательно	-12.0573
▁почувствова	-12.0573
▁агресси	-12.0573
устремлен	-12.0573
ношениям	-12.0574
▁укреп	-12.0574
▁напряжени	-12.0574
▁угожда	-12.0575
▁тип	-12.0575
▁возбужден	-12.0575
кричат	-12.0575
игент	-12.0576
труд	-12.0576
▁рассвет	-12.0576
останов	-12.0576
▁изоляци	-12.0577
канчиваться	-12.0577
совмест	-12.0577
▁ерунд	-12.0578
доволь	-12.0578
ступа	-12.0578
▁увелич	-12.0578
▁видели	-12.0579
▁обременя	-12.0579
разъясн	-12.0579
твовать	-12.0579
выслуш	-12.0579
▁немолод	-12.058
▁неправд	-12.058
держанны	-12.0581
▁румян	-12.0581
▁физ	-12.0582
украшива	-12.0582
▁притесня	-12.0582
▁сердит	-12.0582
▁невольно	-12.0583
▁предвиде	-12.0583
▁безнравственно	-12.0583
▁хвастлив	-12.0584
ационалистическо	-12.0584
▁професси	-12.0584
нятно	-12.0584
▁важнича	-12.0584
орох	-12.0585
алкогольн	-12.0585
▁разозлить	-12.0585
думываясь	-12.0585
ощр	-12.0585
▁энтузиазм	-12.0586
▁содерж	-12.0586
▁бестолк	-12.0586
▁унизит	-12.0587
▁чувствую	-12.0587
▁марш	-12.0587
ивому	-12.0587
▁прятать	-12.0587
▁россия	-12.0587
▁порица	-12.0588
горяч	-12.0588
▁рискну	-12.0588
▁искусс	-12.0588
▁удивить	-12.0589
▁неодобр	-12.059
бота	-12.059
никах	-12.059
чеством	-12.059
наружи	-12.059
▁выносит	-12.059
▁сигарет	-12.0591
▁свадьб	-12.0591
пряжённо	-12.0591
шнего	-12.0591
осталь	-12.0592
испуг	-12.0592
▁женитьб	-12.0592
▁погуб	-12.0592
▁металл	-12.0592
▁преданн	-12.0593
▁гибел	-12.0593
▁неприметн	-12.0593
утствовал	-12.0593
▁ненормальн	-12.0593
▁шанс	-12.0593
▁радовать	-12.0593
урядн	-12.0594
▁молитв	-12.0594
аспек	-12.0594
непоследовательн	-12.0594
рачивает	-12.0594
▁иезуито	-12.0595
▁инициат	-12.0595
▁хохот	-12.0596
ростом	-12.0596
торжестве	-12.0596
▁экипаж	-12.0596
европ	-12.0596
▁производя	-12.0597
вредит	-12.0597
приглашен	-12.0597
стую	-12.0597
▁универ	-12.0597
▁разгром	-12.0597
изненным	-12.0597
▁подожд	-12.0597
ждение	-12.0597
▁непослуш	-12.0597
жная	-12.0597
▁безысходно	-12.0598
▁безнаказанн	-12.0598
▁исступл	-12.0598
черк	-12.0598
▁ошибочно	-12.0598
▁молчал	-12.0598
▁едино	-12.0599
яснения	-12.0599
ливость	-12.0599
▁понес	-12.0599
омнил	-12.0599
дчик	-12.0599
▁обманщик	-12.0599
произво	-12.06
▁воздейств	-12.06
словия	-12.06
▁препятстви	-12.06
▁бережливо	-12.06
▁петух	-12.0601
▁хвалит	-12.0601
финанс	-12.0601
▁путешеств	-12.0601
▁основатель	-12.0602
▁хваст	-12.0602
товству	-12.0602
▁произошедш	-12.0602
▁фантаз	-12.0602
▁мировоз	-12.0602
▁традиционн	-12.0602
▁профессионал	-12.0602
гиб	-12.0602
догон	-12.0602
лечит	-12.0602
▁колебл	-12.0602
развед	-12.0603
величива	-12.0603
▁милосерд	-12.0603
▁небывал	-12.0603
злюбленн	-12.0604
▁рассудит	-12.0604
кусить	-12.0604
▁офис	-12.0604
путат	-12.0604
мьян	-12.0604
ператор	-12.0604
▁нищенство	-12.0605
тельностью	-12.0605
▁согре	-12.0605
революционно	-12.0605
▁убит	-12.0605
▁ненорма	-12.0605
рабочи	-12.0605
ловка	-12.0605
чивается	-12.0605
▁энтузиа	-12.0605
центри	-12.0605
обладаю	-12.0605
града	-12.0606
▁высокомер	-12.0606
волюционно	-12.0606
порядочно	-12.0606
▁эксплуатир	-12.0606
грывающ	-12.0606
▁запеча	-12.0606
▁фанта	-12.0606
заклинани	-12.0606
одолеть	-12.0606
▁психи	-12.0606
▁аристократ	-12.0606
▁эксп	-12.0606
ослабе	-12.0606
▁приспос	-12.0607
ждаются	-12.0607
▁неблаго	-12.0607
спаси	-12.0607
вращать	-12.0607
▁возгла	-12.0607
смышл	-12.0607
▁опозда	-12.0607
▁поедин	-12.0607
ственник	-12.0607
лечённы	-12.0607
вспоте	-12.0607
тябрь	-12.0607
первонач	-12.0607
питания	-12.0607
шню	-12.0607
▁сумато	-12.0607
окола	-12.0607
▁религи	-12.0607
▁эффект	-12.0607
превзой	-12.0607
достове	-12.0607
остатки	-12.0607
министра	-12.0607
особленно	-12.0607
ционально	-12.0607
▁афиш	-12.0607
заран	-12.0607
кнут	-12.0607
яснится	-12.0607
ионеров	-12.0607
офиц	-12.0607
▁псал	-12.0607
▁колеба	-12.0607
британ	-12.0608
тянув	-12.0608
лекси	-12.0608
ргии	-12.0608
▁безответ	-12.0608
ратур	-12.0608
голово	-12.0608
срочн	-12.0608
оритет	-12.0608
андала	-12.0608
мельча	-12.0608
урга	-12.0608
здник	-12.0608
авливаясь	-12.0608
тишка	-12.0609
жившее	-12.0609
▁абс	-12.0609
▁нелогично	-12.0609
сходстве	-12.0609
оречиво	-12.0609
▁таба	-12.0609
▁шпи	-12.0609
алистическ	-12.0609
ократическо	-12.0609
строе	-12.0609
▁накоп	-12.0609
▁приез	-12.0609
▁одур	-12.0609
унду	-12.0609
трированн	-12.0609
укор	-12.0609
скованно	-12.061
▁сумас	-12.061
проходи	-12.061
рехи	-12.061
▁хао	-12.061
▁контр	-12.061
▁восхищени	-12.061
▁намеч	-12.061
▁приверед	-12.061
оговорка	-12.061
сходило	-12.061
▁объед	-12.061
скоре	-12.0611
енький	-12.0611
волос	-12.0611
ряжа	-12.0611
▁поток	-12.0611
клят	-12.0611
ещении	-12.0611
▁выздоров	-12.0611
ектив	-12.0611
аснет	-12.0611
▁шутл	-12.0611
жающих	-12.0611
несло	-12.0611
циями	-12.0611
▁претен	-12.0612
▁разъя	-12.0612
зким	-12.0612
атываем	-12.0612
94	-12.0612
ализир	-12.0613
69	-12.0613
▁спец	-12.0613
▁ранга	-12.0613
чника	-12.0613
бытия	-12.0613
▁суматох	-12.0613
печатле	-12.0613
▁умень	-12.0613
лощен	-12.0613
▁желател	-12.0614
стяк	-12.0614
▁огра	-12.0614
цанием	-12.0614
ательство	-12.0614
тельстве	-12.0615
хваля	-12.0615
сколь	-12.0615
риха	-12.0615
▁цини	-12.0615
ченность	-12.0615
застенчив	-12.0616
ступно	-12.0616
нениям	-12.0616
шками	-12.0616
▁конф	-12.0616
▁поезд	-12.0617
16	-12.0617
малу	-12.0617
морско	-12.0617
ставших	-12.0617
агора	-12.0617
доедать	-12.0617
анны	-12.0617
▁сообразительны	-12.0618
нсул	-12.0618
талы	-12.0618
▁универс	-12.0618
▁скрыл	-12.0619
▁враждебно	-12.0619
вержен	-12.0619
преим	-12.0619
▁нищенс	-12.0619
заурядно	-12.062
▁невиди	-12.062
щиков	-12.0621
▁инф	-12.0621
▁периодич	-12.0621
ревшем	-12.0621
тийско	-12.0621
истск	-12.0622
ремле	-12.0622
жё	-12.0622
ратор	-12.0622
▁окра	-12.0622
ремя	-12.0623
▁скук	-12.0623
игар	-12.0623
▁медл	-12.0624
ынут	-12.0624
▁сердить	-12.0624
▁доказа	-12.0624
кричать	-12.0624
жает	-12.0624
▁невз	-12.0624
▁незап	-12.0625
шествия	-12.0625
говоров	-12.0626
ессов	-12.0626
систем	-12.0627
ворящем	-12.0628
▁цез	-12.0628
▁пережи	-12.0628
суп	-12.0629
дёш	-12.0629
шивать	-12.0629
дства	-12.0629
суть	-12.063
▁корню	-12.063
окупае	-12.063
адкой	-12.063
▁овладе	-12.063
полнения	-12.063
улящи	-12.063
▁поступит	-12.063
ражающем	-12.0631
наши	-12.0631
ционалистическо	-12.0631
нчан	-12.0632
шедший	-12.0632
▁внез	-12.0633
▁решат	-12.0633
ольше	-12.0634
▁фла	-12.0635
▁ничтож	-12.0635
ковски	-12.0635
глу	-12.0635
▁глу	-12.0636
▁излож	-12.0636
зав	-12.0636
▁ввер	-12.0637
▁страдани	-12.0637
▁сходит	-12.0637
диво	-12.0637
бился	-12.0638
▁укрепл	-12.0638
гадать	-12.0638
▁интеллиген	-12.0638
▁рассчит	-12.0638
▁воспоминания	-12.0639
знуть	-12.0639
арном	-12.064
▁льстив	-12.0641
разить	-12.0641
▁опром	-12.0642
ительством	-12.0642
лучно	-12.0642
нища	-12.0643
делил	-12.0643
ериал	-12.0645
эт	-12.0645
седой	-12.0645
разумению	-12.0645
▁греч	-12.0646
▁активны	-12.0646
буквальн	-12.0649
ужив	-12.065
▁сент	-12.065
▁восхи	-12.0651
ольк	-12.0651
смеять	-12.0652
▁деш	-12.0652
ящего	-12.0652
чётливо	-12.0652
знь	-12.0654
юрис	-12.0655
нятом	-12.0655
одушие	-12.0655
▁достает	-12.0655
▁жестокость	-12.0655
▁попул	-12.0656
▁изменило	-12.0657
▁крайностя	-12.0657
треб	-12.0658
отче	-12.0659
разрыв	-12.0659
сходить	-12.066
орди	-12.0662
новиться	-12.0663
гией	-12.0663
▁бесчи	-12.0664
▁агр	-12.0665
чивая	-12.0665
▁утро	-12.0665
▁мнимым	-12.0666
жающей	-12.0668
заря	-12.0669
роси	-12.0669
▁стойко	-12.0669
▁случайн	-12.0669
авлении	-12.0669
чешь	-12.0671
▁образумить	-12.0673
▁миф	-12.0673
▁избива	-12.0674
ировал	-12.0674
актер	-12.0675
▁вспомнит	-12.0675
▁сообраз	-12.0676
ории	-12.0676
еств	-12.0677
терна	-12.0678
чиваются	-12.0678
ляющего	-12.0678
▁утих	-12.0682
▁деятель	-12.0683
▁мыш	-12.0684
▁объяснить	-12.0684
ii	-12.0685
▁рисков	-12.0685
равном	-12.0686
▁заболе	-12.0686
ивающее	-12.0687
щине	-12.0691
ъявлен	-12.0692
хоты	-12.0693
▁хороши	-12.0693
оговорки	-12.0693
▁смыслит	-12.0694
мешивать	-12.0697
полна	-12.0697
▁хвали	-12.0699
читается	-12.0701
ебать	-12.0701
ничает	-12.0702
очарова	-12.0704
аций	-12.0704
▁натур	-12.0705
ществе	-12.0706
диты	-12.0708
▁заставит	-12.0708
▁спрашива	-12.0708
хотеть	-12.0709
щес	-12.0709
епное	-12.071
▁обижать	-12.0711
▁прослу	-12.0711
ину	-12.0711
▁пройд	-12.0712
▁едином	-12.0713
▁крит	-12.0714
анд	-12.0714
▁успокоит	-12.0715
▁маг	-12.0715
▁эф	-12.0716
гор	-12.0717
▁фло	-12.0718
лярным	-12.0719
едни	-12.0721
мёр	-12.0722
алистов	-12.0722
тники	-12.0722
▁стан	-12.0724
мыкать	-12.0724
ывание	-12.0727
ниб	-12.0728
▁тянет	-12.0728
ейшем	-12.0729
римо	-12.0729
▁остальны	-12.0733
ментом	-12.0734
ницей	-12.0734
эн	-12.0735
умне	-12.0736
▁непонятна	-12.0736
▁входит	-12.0736
▁насмешка	-12.0742
▁бессон	-12.0744
костью	-12.0744
▁свеже	-12.0745
▁скрытно	-12.0745
ключени	-12.0748
уальным	-12.0749
▁невоз	-12.0752
▁стоят	-12.0753
инс	-12.0753
окуп	-12.0753
▁библ	-12.0754
▁расцвет	-12.0754
забо	-12.0756
змом	-12.0757
▁спеши	-12.0757
▁недовери	-12.0759
▁нерешительн	-12.0759
вленном	-12.0762
асс	-12.0763
бьет	-12.0765
жные	-12.0765
▁негодя	-12.0768
▁навр	-12.0769
▁смирен	-12.0769
шающемся	-12.077
▁англи	-12.0771
бами	-12.0772
елки	-12.0773
чается	-12.0776
явившем	-12.0777
уступ	-12.0777
▁приблизит	-12.0779
ьба	-12.0781
▁изба	-12.0787
▁судит	-12.0787
скоро	-12.0788
▁уши	-12.0788
бели	-12.0789
▁подру	-12.0789
оста	-12.079
древ	-12.0792
▁спря	-12.0792
вшийся	-12.0794
▁помнит	-12.0796
метить	-12.0797
пке	-12.0799
винность	-12.0803
▁пл	-12.0805
щественное	-12.0808
▁предложени	-12.0809
рний	-12.0813
лечить	-12.0814
няется	-12.0815
масш	-12.0815
ленное	-12.0816
ложением	-12.0816
бной	-12.0817
▁невин	-12.0819
▁близки	-12.0819
жимом	-12.082
узе	-12.0821
▁колле	-12.0821
ыйти	-12.0822
рит	-12.0822
▁прижа	-12.0822
анами	-12.0826
▁работника	-12.0826
езду	-12.0828
небрежения	-12.0829
ивания	-12.083
▁остан	-12.0833
▁гос	-12.0833
▁береж	-12.0834
общ	-12.0834
стину	-12.0835
▁незави	-12.0835
дарят	-12.0836
▁стойк	-12.0836
▁кратк	-12.084
▁высказывания	-12.0842
ычайно	-12.0842
тельные	-12.0844
лаб	-12.0846
▁броси	-12.0847
▁скл	-12.0848
сте	-12.085
шенных	-12.085
абля	-12.0852
▁суб	-12.0854
▁сборн	-12.0858
жани	-12.086
▁зад	-12.0863
ёс	-12.0863
▁упрямо	-12.0864
185	-12.0864
пускае	-12.0865
▁знакомств	-12.0865
рождает	-12.0866
▁обдума	-12.0867
▁чиновник	-12.0867
▁спрос	-12.0868
▁подает	-12.087
▁поражени	-12.0871
екла	-12.0876
▁жеманн	-12.0876
▁пережит	-12.0878
орок	-12.0881
звон	-12.0882
ованием	-12.0885
▁почу	-12.0885
язви	-12.0886
▁иностранны	-12.0886
▁насил	-12.0887
▁рассердить	-12.0888
ичаться	-12.0888
носимы	-12.0894
родом	-12.0895
▁собрани	-12.0897
▁выпла	-12.0898
ациями	-12.0899
▁глад	-12.09
▁волне	-12.0901
чаться	-12.0903
▁разве	-12.0905
лительно	-12.0907
тряс	-12.0908
ническая	-12.0909
мед	-12.0909
ельный	-12.091
мирить	-12.0913
81	-12.0913
▁уп	-12.0914
▁приме	-12.0914
▁неотв	-12.0914
▁устан	-12.0916
▁пози	-12.0919
ающему	-12.0922
▁готовы	-12.0923
амиль	-12.0923
▁основы	-12.0924
мяте	-12.0925
компетен	-12.0926
ладан	-12.0929
ака	-12.0932
чьих	-12.0933
рова	-12.0936
▁неуст	-12.0936
▁намерени	-12.0939
▁посту	-12.0941
▁похвала	-12.0942
▁неско	-12.0945
твер	-12.0945
83	-12.0946
▁налого	-12.0947
▁зде	-12.0947
ныне	-12.0947
лет	-12.0948
▁чут	-12.0951
▁насили	-12.0953
▁предупреждени	-12.0957
значительные	-12.0957
▁чувству	-12.0958
▁прочно	-12.0959
расти	-12.0961
▁опозорить	-12.0964
тивной	-12.0964
▁слыша	-12.0965
гоцен	-12.0969
▁стер	-12.0972
▁грехо	-12.0977
лко	-12.098
▁благополучи	-12.0982
итуа	-12.0984
▁авторит	-12.0985
венный	-12.0985
▁неопр	-12.0989
▁близо	-12.0993
кратить	-12.0993
▁встав	-12.0996
▁изобили	-12.0997
▁алкоголе	-12.0998
ирая	-12.1
никого	-12.1002
▁поддержива	-12.1002
▁лов	-12.1003
▁запу	-12.1006
▁пог	-12.1007
анов	-12.1012
▁надежн	-12.1015
▁подно	-12.1016
асности	-12.1018
чивом	-12.1022
▁сохраня	-12.1025
▁дружески	-12.1026
▁през	-12.1028
▁неудача	-12.1032
▁бедны	-12.1033
▁устаре	-12.104
есс	-12.1043
▁легкомысленном	-12.1045
▁отды	-12.1046
ляющем	-12.1047
верши	-12.1056
стение	-12.1056
ухой	-12.1058
▁предло	-12.1058
ершить	-12.1059
ыкать	-12.1063
хоро	-12.1065
▁намер	-12.1071
прик	-12.1071
вный	-12.1073
мистом	-12.1074
▁урод	-12.1075
мить	-12.1077
вал	-12.1077
творяющ	-12.108
лан	-12.1081
▁жест	-12.1086
ицам	-12.1086
▁напер	-12.1087
хотелось	-12.1089
▁потерям	-12.1091
▁неудовлетворенн	-12.1092
думанный	-12.1094
▁несогласи	-12.11
очивать	-12.1103
▁обязыва	-12.1104
лове	-12.1107
▁смущени	-12.1109
жим	-12.1117
▁спорны	-12.1117
существенное	-12.1119
▁подс	-12.1119
▁масте	-12.1122
ельном	-12.1125
▁бестолковы	-12.1127
▁приобретен	-12.1127
вероятности	-12.1128
носторонне	-12.1132
▁проц	-12.1133
кового	-12.1133
гонять	-12.1139
ложные	-12.1144
▁поставленны	-12.115
▁громки	-12.1154
има	-12.1169
▁обнаружи	-12.1172
▁подразумевающе	-12.1181
▁компл	-12.1182
▁свеж	-12.1184
▁ранг	-12.1186
очное	-12.1187
▁рот	-12.1189
осторожности	-12.1191
шная	-12.1192
▁безот	-12.1193
ируют	-12.1196
яко	-12.1204
арным	-12.121
▁соста	-12.1211
инах	-12.1214
аиваться	-12.1215
ловле	-12.1217
▁поверх	-12.1223
▁неравн	-12.1226
▁послуш	-12.1227
▁растени	-12.124
днение	-12.1241
нина	-12.1241
▁воин	-12.1248
страивают	-12.1251
дала	-12.1262
▁искус	-12.1264
▁опьяне	-12.1269
менил	-12.127
▁значительны	-12.127
жность	-12.127
сию	-12.1275
тай	-12.1281
зов	-12.1283
ошедши	-12.1283
жу	-12.1283
кова	-12.1284
але	-12.1289
▁затруднен	-12.1289
▁подал	-12.129
▁смелы	-12.1292
елах	-12.1297
нуто	-12.1299
▁выве	-12.1303
▁даро	-12.1304
аешься	-12.1305
▁подразделени	-12.1306
ляясь	-12.1308
▁соответстви	-12.1311
ведениям	-12.1311
▁общи	-12.1312
пался	-12.132
▁прожит	-12.1321
▁работо	-12.1331
▁цено	-12.1341
ниях	-12.1341
жел	-12.1342
▁упа	-12.1344
▁исключит	-12.1345
жественных	-12.1347
▁n	-12.1348
важным	-12.1349
▁пош	-12.1353
▁реал	-12.1353
▁перевор	-12.1356
▁спо	-12.1362
▁приступ	-12.1365
ивших	-12.1368
▁ходит	-12.1375
▁процесса	-12.1381
▁столкну	-12.1383
▁страна	-12.1391
▁погиба	-12.1396
▁бездельни	-12.1399
ерей	-12.1402
есться	-12.1407
атым	-12.1411
удный	-12.1412
фр	-12.1414
▁се	-12.1417
▁убежден	-12.1418
▁горо	-12.1428
▁сказанн	-12.1432
лег	-12.1435
▁данно	-12.1437
уд	-12.1444
ругать	-12.1446
удительных	-12.1446
▁предполож	-12.1447
▁скр	-12.1448
▁молчани	-12.1452
▁отвлекающ	-12.1452
движения	-12.1453
ичь	-12.1453
тё	-12.1454
▁уходи	-12.1454
важном	-12.1456
▁раска	-12.1469
▁самод	-12.1471
180	-12.1475
рчески	-12.1477
▁ша	-12.1481
рому	-12.1483
ике	-12.1487
играли	-12.1491
▁отп	-12.1493
▁поэ	-12.1495
манна	-12.1501
тливом	-12.1507
▁разнос	-12.1507
▁усл	-12.151
▁слога	-12.1511
▁един	-12.1519
тел	-12.1521
мен	-12.1534
ираться	-12.1539
огонять	-12.1541
▁снов	-12.1542
▁хит	-12.155
▁промахо	-12.1551
житься	-12.1556
▁отц	-12.1557
▁конфликт	-12.1561
кор	-12.1563
оговор	-12.1564
▁направля	-12.1572
▁незаме	-12.1574
ажать	-12.1575
знанию	-12.1575
▁некачественны	-12.158
▁ца	-12.1581
▁фор	-12.1591
▁утвержд	-12.1595
▁распла	-12.1607
иян	-12.1626
▁комме	-12.1628
скому	-12.1629
роса	-12.163
су	-12.1641
йдется	-12.1645
▁решени	-12.1645
▁обычае	-12.165
tu	-12.1655
сок	-12.1656
▁наказыва	-12.1657
торы	-12.1664
▁закл	-12.1665
ятн	-12.1671
▁задержк	-12.1675
▁неказ	-12.1683
▁посл	-12.1684
имент	-12.1688
веще	-12.1691
▁правд	-12.1692
имся	-12.1693
пу	-12.1695
▁интер	-12.1704
естном	-12.1714
сьме	-12.1737
▁обер	-12.1738
▁защища	-12.1742
▁карт	-12.1744
рус	-12.1748
▁усерд	-12.1777
ельная	-12.1782
▁сол	-12.1785
вно	-12.1794
нены	-12.1798
казания	-12.181
сан	-12.1811
ализова	-12.1817
хватывает	-12.1831
толковым	-12.1832
▁тон	-12.1834
думать	-12.1835
▁госте	-12.1837
▁зама	-12.184
значительном	-12.1845
павшем	-12.185
чивое	-12.1852
стороже	-12.1854
▁средствам	-12.1857
смягчаю	-12.1858
охранять	-12.186
▁дворянско	-12.1861
▁чре	-12.1867
кушать	-12.1875
тре	-12.1878
тали	-12.188
ражении	-12.1885
хуже	-12.1887
охи	-12.1896
пользования	-12.1903
пасаясь	-12.191
▁ненавист	-12.191
▁чере	-12.1912
угадать	-12.1922
▁прожива	-12.1924
▁инте	-12.1925
кул	-12.1927
▁дос	-12.193
▁подле	-12.1937
▁высоки	-12.1953
▁убе	-12.1953
ческо	-12.1958
ущее	-12.1967
вша	-12.1967
донос	-12.1968
▁фина	-12.1968
ясняют	-12.197
▁неразб	-12.1987
рели	-12.1988
хор	-12.1994
▁разном	-12.1998
казачье	-12.2007
алит	-12.2007
вия	-12.201
сы	-12.2023
▁замкну	-12.2041
бивая	-12.2045
ци	-12.2055
шело	-12.2057
тча	-12.2058
▁происходя	-12.2059
нью	-12.2063
льт	-12.208
мочь	-12.2084
▁казач	-12.2088
▁независимы	-12.2089
льных	-12.2098
русски	-12.21
▁оскорбля	-12.2101
ругом	-12.2105
плачивает	-12.2108
▁спокойны	-12.2129
▁обла	-12.2149
▁расстро	-12.215
▁любовн	-12.2159
▁толковат	-12.2161
▁чёрн	-12.2164
▁приличн	-12.2165
▁грозно	-12.2166
▁обряд	-12.2176
▁мане	-12.2182
▁отме	-12.2183
кости	-12.219
▁ценны	-12.2195
ждать	-12.2196
ования	-12.2197
анг	-12.22
▁осуществлен	-12.2201
етах	-12.2202
ятой	-12.2203
нье	-12.2205
▁ожи	-12.2209
▁противоположн	-12.2209
нив	-12.2212
авляя	-12.2213
▁долж	-12.2214
▁делить	-12.2216
▁направленн	-12.2218
ктивно	-12.2224
▁прове	-12.2227
чиваться	-12.2233
▁искренни	-12.2238
▁фи	-12.224
▁одиноч	-12.2254
▁es	-12.2257
▁отправл	-12.2259
▁навы	-12.2269
давшего	-12.2269
иром	-12.2273
личия	-12.2278
▁убеждени	-12.2287
▁судо	-12.2293
иной	-12.2294
▁спл	-12.2303
вающая	-12.2306
▁закры	-12.2309
ненави	-12.2311
192	-12.2313
верия	-12.2315
▁приводящ	-12.232
▁любител	-12.2321
▁каждом	-12.2327
▁раздражени	-12.2335
ходящем	-12.2339
тано	-12.2347
80	-12.2348
▁ура	-12.2348
▁размен	-12.2351
▁масс	-12.2356
чественное	-12.2358
▁краси	-12.2359
договарива	-12.2364
▁ру	-12.2372
зад	-12.2373
омышленников	-12.2374
ающей	-12.2377
▁сыты	-12.2382
▁выш	-12.2383
спешно	-12.2394
▁промышленн	-12.2394
платы	-12.2395
▁заче	-12.24
▁ва	-12.2401
▁находить	-12.2407
▁страстн	-12.2411
▁сек	-12.2414
ищение	-12.2416
освященны	-12.2424
рия	-12.2425
▁непро	-12.244
▁улучшени	-12.2441
ийск	-12.2446
▁умеющ	-12.2452
▁кул	-12.2463
ивый	-12.2479
▁учеб	-12.2482
▁уче	-12.2488
лица	-12.2489
ическ	-12.2502
после	-12.2507
казывать	-12.2511
стых	-12.2536
▁написанно	-12.254
▁продолжающе	-12.2551
▁устава	-12.2552
▁лёгко	-12.2555
советовать	-12.2558
режет	-12.2579
ьев	-12.2582
думы	-12.2584
▁ответственны	-12.2592
▁беспорядк	-12.2603
▁идеальн	-12.2609
▁оправдан	-12.2617
▁пору	-12.2627
аци	-12.2636
стая	-12.2645
шие	-12.2652
▁сла	-12.2656
▁призывающе	-12.2666
▁настроени	-12.2669
▁факто	-12.2669
уг	-12.2688
▁центрально	-12.2697
▁ище	-12.2702
▁навязывае	-12.2704
▁влюбл	-12.2709
ложений	-12.2709
▁показ	-12.2719
▁негодова	-12.2722
тного	-12.2732
▁отдач	-12.274
умение	-12.2751
тру	-12.2754
лоды	-12.2755
▁дай	-12.2758
наказанным	-12.2759
▁обещани	-12.2763
мышлению	-12.2764
▁отношениям	-12.2774
▁подл	-12.2777
▁сож	-12.2777
тами	-12.2779
▁пустя	-12.2779
вные	-12.2786
лаю	-12.2801
▁пом	-12.2806
▁сдавать	-12.2807
орвать	-12.2808
разумить	-12.2812
▁крич	-12.2813
▁высоком	-12.2814
редничать	-12.2814
▁дово	-12.2816
рый	-12.2819
▁церемонн	-12.2825
▁ощущ	-12.2826
▁бесп	-12.2841
ительное	-12.2847
немногу	-12.2868
▁чувствам	-12.287
▁чес	-12.2873
ваясь	-12.2874
▁вос	-12.2875
▁спиртны	-12.2875
▁непонятн	-12.2883
▁осознава	-12.2884
▁стандартн	-12.2888
движен	-12.2911
▁удачлив	-12.2917
сн	-12.293
нах	-12.2935
▁заве	-12.2946
атыка	-12.2951
простым	-12.2953
▁стои	-12.2971
тельной	-12.2995
▁изумл	-12.3024
апи	-12.3032
ише	-12.3051
знающем	-12.3055
▁усилиям	-12.3059
▁эг	-12.3067
▁расположен	-12.3071
▁южно	-12.3082
ящи	-12.3085
▁приступа	-12.3094
чинам	-12.3099
умны	-12.3116
рушающее	-12.3133
▁проворно	-12.3137
емом	-12.3139
ьку	-12.3167
▁смертн	-12.3171
яз	-12.3184
стини	-12.3191
итае	-12.3195
▁уте	-12.3206
овками	-12.3209
▁ди	-12.321
▁воинск	-12.3223
▁схожи	-12.3226
еца	-12.324
▁голоде	-12.3244
довольствие	-12.3251
аф	-12.3253
любовью	-12.3278
▁прошедш	-12.328
тах	-12.3291
спокойной	-12.3295
▁важном	-12.3314
▁сне	-12.3319
едет	-12.3319
▁инт	-12.334
▁главно	-12.335
нулся	-12.3368
▁сделанн	-12.3369
лея	-12.3409
янная	-12.341
▁сохрани	-12.3419
сий	-12.343
учится	-12.3437
▁пообе	-12.3445
▁управляе	-12.3462
ентом	-12.3469
имн	-12.3502
ание	-12.3508
▁особенностя	-12.351
ступок	-12.351
поте	-12.3517
▁трудово	-12.3518
▁рассеянно	-12.3522
рачивать	-12.3526
▁голо	-12.3526
▁сказанно	-12.3533
▁истинны	-12.3555
▁поспешны	-12.3557
ne	-12.3559
▁принудит	-12.3568
▁утоми	-12.357
▁настро	-12.357
▁положен	-12.3578
желательном	-12.3582
▁нравственно	-12.3585
▁дорог	-12.3592
▁вет	-12.3592
авшем	-12.3594
▁ограниченн	-12.3617
▁приписывае	-12.3632
▁проявлен	-12.3635
▁обвинени	-12.3659
▁неум	-12.3666
мах	-12.3676
тального	-12.3679
▁присмотр	-12.3682
зли	-12.3694
▁трудит	-12.3719
удовлетворение	-12.3721
▁доро	-12.3729
▁приви	-12.3733
рочно	-12.3736
▁хладнокрови	-12.3746
▁длинны	-12.3757
▁уныни	-12.3762
▁некомпетентн	-12.3769
▁экономи	-12.3773
▁укоро	-12.3776
▁заключени	-12.378
родными	-12.3793
▁поло	-12.381
▁выпл	-12.3816
деля	-12.3821
зъя	-12.3824
▁ри	-12.3827
▁случ	-12.3833
пожелани	-12.3839
ъ	-13.4453
